{
  "vocab_size": 1000,
  "special_tokens": [
    "<|endoftext|>"
  ],
  "vocab": {
    "0": "\u0000",
    "1": "\u0001",
    "2": "\u0002",
    "3": "\u0003",
    "4": "\u0004",
    "5": "\u0005",
    "6": "\u0006",
    "7": "\u0007",
    "8": "\b",
    "9": "\t",
    "10": "\n",
    "11": "\u000b",
    "12": "\f",
    "13": "\r",
    "14": "\u000e",
    "15": "\u000f",
    "16": "\u0010",
    "17": "\u0011",
    "18": "\u0012",
    "19": "\u0013",
    "20": "\u0014",
    "21": "\u0015",
    "22": "\u0016",
    "23": "\u0017",
    "24": "\u0018",
    "25": "\u0019",
    "26": "\u001a",
    "27": "\u001b",
    "28": "\u001c",
    "29": "\u001d",
    "30": "\u001e",
    "31": "\u001f",
    "32": " ",
    "33": "!",
    "34": "\"",
    "35": "#",
    "36": "$",
    "37": "%",
    "38": "&",
    "39": "'",
    "40": "(",
    "41": ")",
    "42": "*",
    "43": "+",
    "44": ",",
    "45": "-",
    "46": ".",
    "47": "/",
    "48": "0",
    "49": "1",
    "50": "2",
    "51": "3",
    "52": "4",
    "53": "5",
    "54": "6",
    "55": "7",
    "56": "8",
    "57": "9",
    "58": ":",
    "59": ";",
    "60": "<",
    "61": "=",
    "62": ">",
    "63": "?",
    "64": "@",
    "65": "A",
    "66": "B",
    "67": "C",
    "68": "D",
    "69": "E",
    "70": "F",
    "71": "G",
    "72": "H",
    "73": "I",
    "74": "J",
    "75": "K",
    "76": "L",
    "77": "M",
    "78": "N",
    "79": "O",
    "80": "P",
    "81": "Q",
    "82": "R",
    "83": "S",
    "84": "T",
    "85": "U",
    "86": "V",
    "87": "W",
    "88": "X",
    "89": "Y",
    "90": "Z",
    "91": "[",
    "92": "\\",
    "93": "]",
    "94": "^",
    "95": "_",
    "96": "`",
    "97": "a",
    "98": "b",
    "99": "c",
    "100": "d",
    "101": "e",
    "102": "f",
    "103": "g",
    "104": "h",
    "105": "i",
    "106": "j",
    "107": "k",
    "108": "l",
    "109": "m",
    "110": "n",
    "111": "o",
    "112": "p",
    "113": "q",
    "114": "r",
    "115": "s",
    "116": "t",
    "117": "u",
    "118": "v",
    "119": "w",
    "120": "x",
    "121": "y",
    "122": "z",
    "123": "{",
    "124": "|",
    "125": "}",
    "126": "~",
    "127": "\u007f",
    "128": "\u0080",
    "129": "\u0081",
    "130": "\u0082",
    "131": "\u0083",
    "132": "\u0084",
    "133": "\u0085",
    "134": "\u0086",
    "135": "\u0087",
    "136": "\u0088",
    "137": "\u0089",
    "138": "\u008a",
    "139": "\u008b",
    "140": "\u008c",
    "141": "\u008d",
    "142": "\u008e",
    "143": "\u008f",
    "144": "\u0090",
    "145": "\u0091",
    "146": "\u0092",
    "147": "\u0093",
    "148": "\u0094",
    "149": "\u0095",
    "150": "\u0096",
    "151": "\u0097",
    "152": "\u0098",
    "153": "\u0099",
    "154": "\u009a",
    "155": "\u009b",
    "156": "\u009c",
    "157": "\u009d",
    "158": "\u009e",
    "159": "\u009f",
    "160": "\u00a0",
    "161": "\u00a1",
    "162": "\u00a2",
    "163": "\u00a3",
    "164": "\u00a4",
    "165": "\u00a5",
    "166": "\u00a6",
    "167": "\u00a7",
    "168": "\u00a8",
    "169": "\u00a9",
    "170": "\u00aa",
    "171": "\u00ab",
    "172": "\u00ac",
    "173": "\u00ad",
    "174": "\u00ae",
    "175": "\u00af",
    "176": "\u00b0",
    "177": "\u00b1",
    "178": "\u00b2",
    "179": "\u00b3",
    "180": "\u00b4",
    "181": "\u00b5",
    "182": "\u00b6",
    "183": "\u00b7",
    "184": "\u00b8",
    "185": "\u00b9",
    "186": "\u00ba",
    "187": "\u00bb",
    "188": "\u00bc",
    "189": "\u00bd",
    "190": "\u00be",
    "191": "\u00bf",
    "192": "\u00c0",
    "193": "\u00c1",
    "194": "\u00c2",
    "195": "\u00c3",
    "196": "\u00c4",
    "197": "\u00c5",
    "198": "\u00c6",
    "199": "\u00c7",
    "200": "\u00c8",
    "201": "\u00c9",
    "202": "\u00ca",
    "203": "\u00cb",
    "204": "\u00cc",
    "205": "\u00cd",
    "206": "\u00ce",
    "207": "\u00cf",
    "208": "\u00d0",
    "209": "\u00d1",
    "210": "\u00d2",
    "211": "\u00d3",
    "212": "\u00d4",
    "213": "\u00d5",
    "214": "\u00d6",
    "215": "\u00d7",
    "216": "\u00d8",
    "217": "\u00d9",
    "218": "\u00da",
    "219": "\u00db",
    "220": "\u00dc",
    "221": "\u00dd",
    "222": "\u00de",
    "223": "\u00df",
    "224": "\u00e0",
    "225": "\u00e1",
    "226": "\u00e2",
    "227": "\u00e3",
    "228": "\u00e4",
    "229": "\u00e5",
    "230": "\u00e6",
    "231": "\u00e7",
    "232": "\u00e8",
    "233": "\u00e9",
    "234": "\u00ea",
    "235": "\u00eb",
    "236": "\u00ec",
    "237": "\u00ed",
    "238": "\u00ee",
    "239": "\u00ef",
    "240": "\u00f0",
    "241": "\u00f1",
    "242": "\u00f2",
    "243": "\u00f3",
    "244": "\u00f4",
    "245": "\u00f5",
    "246": "\u00f6",
    "247": "\u00f7",
    "248": "\u00f8",
    "249": "\u00f9",
    "250": "\u00fa",
    "251": "\u00fb",
    "252": "\u00fc",
    "253": "\u00fd",
    "254": "\u00fe",
    "255": "\u00ff",
    "256": " t",
    "257": "he",
    "258": " a",
    "259": " s",
    "260": "ou",
    "261": "in",
    "262": " w",
    "263": " m",
    "264": "\r\n",
    "265": "re",
    "266": "ha",
    "267": " the",
    "268": "nd",
    "269": "is",
    "270": " b",
    "271": "er",
    "272": "\u00e2\u0080",
    "273": "or",
    "274": "\r\n\r",
    "275": "on",
    "276": "ll",
    "277": "it",
    "278": " f",
    "279": "\u00e2\u0080\u0099",
    "280": " d",
    "281": " l",
    "282": " c",
    "283": "en",
    "284": "ar",
    "285": " th",
    "286": " n",
    "287": "es",
    "288": " o",
    "289": " to",
    "290": "hat",
    "291": "om",
    "292": " p",
    "293": " I",
    "294": "ve",
    "295": " and",
    "296": " y",
    "297": "ot",
    "298": " he",
    "299": "an",
    "300": "at",
    "301": "ing",
    "302": " h",
    "303": "et",
    "304": " of",
    "305": " you",
    "306": "se",
    "307": "ut",
    "308": " in",
    "309": "st",
    "310": "ow",
    "311": " g",
    "312": "ay",
    "313": " be",
    "314": "ith",
    "315": "gh",
    "316": "le",
    "317": "ce",
    "318": " is",
    "319": "ad",
    "320": "ome",
    "321": " e",
    "322": "ch",
    "323": " me",
    "324": " my",
    "325": "ri",
    "326": " with",
    "327": "ed",
    "328": " not",
    "329": "ld",
    "330": " ha",
    "331": " that",
    "332": "ght",
    "333": "ill",
    "334": "oo",
    "335": " thou",
    "336": " for",
    "337": "ir",
    "338": "ent",
    "339": "And",
    "340": " u",
    "341": "al",
    "342": "ET",
    "343": "ME",
    "344": "ur",
    "345": " li",
    "346": "ul",
    "347": " st",
    "348": "UL",
    "349": "id",
    "350": " this",
    "351": " de",
    "352": "\r\n\r\n",
    "353": " it",
    "354": "  ",
    "355": "ro",
    "356": " lo",
    "357": "im",
    "358": " C",
    "359": "ct",
    "360": "nt",
    "361": "ke",
    "362": "ion",
    "363": " P",
    "364": " we",
    "365": "ly",
    "366": "our",
    "367": "ain",
    "368": "RO",
    "369": "am",
    "370": "The",
    "371": "ROME",
    "372": "ROMEO",
    "373": " re",
    "374": "her",
    "375": " as",
    "376": " an",
    "377": " R",
    "378": " on",
    "379": "EN",
    "380": " so",
    "381": "ck",
    "382": " thy",
    "383": " L",
    "384": " her",
    "385": "omeo",
    "386": " wor",
    "387": "ight",
    "388": "ver",
    "389": "as",
    "390": " love",
    "391": " will",
    "392": "ag",
    "393": "Th",
    "394": "ore",
    "395": " sha",
    "396": "ell",
    "397": "ect",
    "398": " M",
    "399": " thee",
    "400": "ber",
    "401": "ood",
    "402": "ould",
    "403": " k",
    "404": "art",
    "405": "IO",
    "406": " G",
    "407": "SE",
    "408": "ra",
    "409": " his",
    "410": " do",
    "411": "hi",
    "412": " fa",
    "413": " Romeo",
    "414": "ear",
    "415": "_]",
    "416": "[_",
    "417": "ULI",
    "418": "ULIET",
    "419": "JULIET",
    "420": "if",
    "421": " have",
    "422": "._]",
    "423": " or",
    "424": "ic",
    "425": "ea",
    "426": "ath",
    "427": " su",
    "428": "rom",
    "429": "il",
    "430": "AR",
    "431": " [_",
    "432": "out",
    "433": "What",
    "434": " him",
    "435": "est",
    "436": " she",
    "437": " all",
    "438": " by",
    "439": "AP",
    "440": " your",
    "441": " but",
    "442": "ru",
    "443": " sh",
    "444": " v",
    "445": "ive",
    "446": "ULET",
    "447": "APULET",
    "448": " no",
    "449": "ake",
    "450": " se",
    "451": " mu",
    "452": " man",
    "453": " up",
    "454": "one",
    "455": " A",
    "456": " shall",
    "457": " ne",
    "458": "uten",
    "459": "utenber",
    "460": "utenberg",
    "461": "ant",
    "462": "ap",
    "463": " F",
    "464": "ess",
    "465": " from",
    "466": "UR",
    "467": "URSE",
    "468": "NURSE",
    "469": " E",
    "470": "ound",
    "471": "ject",
    "472": "em",
    "473": "To",
    "474": " at",
    "475": " J",
    "476": "ous",
    "477": "roject",
    "478": "ort",
    "479": " sp",
    "480": " are",
    "481": "ho",
    "482": "alt",
    "483": "all",
    "484": "nter",
    "485": "ks",
    "486": "ine",
    "487": "But",
    "488": " co",
    "489": " O",
    "490": "ter",
    "491": "oth",
    "492": "han",
    "493": " T",
    "494": "ady",
    "495": "RI",
    "496": " com",
    "497": " can",
    "498": "iet",
    "499": "here",
    "500": " night",
    "501": " S",
    "502": "ep",
    "503": "ation",
    "504": "ate",
    "505": "That",
    "506": "CE",
    "507": " dis",
    "508": " sw",
    "509": " Project",
    "510": "qu",
    "511": "la",
    "512": " Enter",
    "513": " Cap",
    "514": " hat",
    "515": "uliet",
    "516": "row",
    "517": " am",
    "518": " Gutenberg",
    "519": "ulet",
    "520": "ind",
    "521": "ie",
    "522": "aw",
    "523": " kn",
    "524": " Capulet",
    "525": "hich",
    "526": "and",
    "527": "UT",
    "528": " here",
    "529": " ar",
    "530": "ast",
    "531": " go",
    "532": " death",
    "533": " ag",
    "534": " W",
    "535": " N",
    "536": "us",
    "537": "ers",
    "538": "Ex",
    "539": " Juliet",
    "540": "\u00e2\u0080\u0094",
    "541": "ont",
    "542": " what",
    "543": " good",
    "544": "pp",
    "545": "ry",
    "546": "MER",
    "547": "sel",
    "548": "VO",
    "549": "VOL",
    "550": "VOLIO",
    "551": "MERC",
    "552": "ENVOLIO",
    "553": "BENVOLIO",
    "554": " there",
    "555": " day",
    "556": "yb",
    "557": "ybalt",
    "558": "UTIO",
    "559": "MERCUTIO",
    "560": " ho",
    "561": "urse",
    "562": "ord",
    "563": "ble",
    "564": " say",
    "565": " our",
    "566": "th",
    "567": "ook",
    "568": "ame",
    "569": "RIAR",
    "570": "For",
    "571": "FRIAR",
    "572": "ure",
    "573": "ong",
    "574": "hen",
    "575": " may",
    "576": "    ",
    "577": " if",
    "578": " H",
    "579": "ard",
    "580": "are",
    "581": " more",
    "582": " come",
    "583": " any",
    "584": "ven",
    "585": "ue",
    "586": "ENCE",
    "587": " then",
    "588": " sir",
    "589": " now",
    "590": "end",
    "591": "ak",
    "592": "WR",
    "593": "WRENCE",
    "594": "AWRENCE",
    "595": " bl",
    "596": " LAWRENCE",
    "597": "um",
    "598": "od",
    "599": " too",
    "600": "nce",
    "601": "fore",
    "602": "el",
    "603": "CAPULET",
    "604": " mar",
    "605": " let",
    "606": " hath",
    "607": " would",
    "608": "io",
    "609": "LA",
    "610": " one",
    "611": " con",
    "612": "res",
    "613": "au",
    "614": " pr",
    "615": " art",
    "616": " Tybalt",
    "617": " j",
    "618": "self",
    "619": "hy",
    "620": "DY",
    "621": " was",
    "622": " dead",
    "623": " out",
    "624": "ies",
    "625": "aid",
    "626": "LADY",
    "627": " than",
    "628": " ey",
    "629": " Nurse",
    "630": " r",
    "631": "ove",
    "632": "ON",
    "633": " should",
    "634": " pro",
    "635": " must",
    "636": " know",
    "637": "ng",
    "638": "ere",
    "639": "age",
    "640": " work",
    "641": " their",
    "642": " po",
    "643": "unt",
    "644": "ge",
    "645": "ef",
    "646": "eet",
    "647": " un",
    "648": " such",
    "649": " mad",
    "650": " lady",
    "651": " fair",
    "652": " CAPULET",
    "653": "ouse",
    "654": "Thou",
    "655": "This",
    "656": " they",
    "657": " some",
    "658": " al",
    "659": "ther",
    "660": "riar",
    "661": "ime",
    "662": " ex",
    "663": "ide",
    "664": "entle",
    "665": "My",
    "666": " them",
    "667": " hea",
    "668": " ab",
    "669": " Friar",
    "670": "ves",
    "671": "other",
    "672": "ack",
    "673": " well",
    "674": " cop",
    "675": "oy",
    "676": "ink",
    "677": "You",
    "678": " us",
    "679": " qu",
    "680": "very",
    "681": "ontag",
    "682": "man",
    "683": "ish",
    "684": "ire",
    "685": " when",
    "686": " see",
    "687": " part",
    "688": " hast",
    "689": " \u00e2\u0080",
    "690": " B",
    "691": "ol",
    "692": "ite",
    "693": "ise",
    "694": "AN",
    "695": " yet",
    "696": " upon",
    "697": " tell",
    "698": " other",
    "699": " hand",
    "700": " did",
    "701": " Montag",
    "702": "   ",
    "703": "urn",
    "704": "ist",
    "705": "ince",
    "706": "erc",
    "707": "As",
    "708": " which",
    "709": " these",
    "710": " make",
    "711": " light",
    "712": " What",
    "713": "os",
    "714": "ears",
    "715": "aris",
    "716": " tru",
    "717": " sweet",
    "718": " much",
    "719": " \u00e2\u0080\u0099",
    "720": "right",
    "721": "ree",
    "722": "iss",
    "723": "erm",
    "724": "ark",
    "725": " where",
    "726": " like",
    "727": " give",
    "728": " fl",
    "729": " Paris",
    "730": "ost",
    "731": "ity",
    "732": "fe",
    "733": "ary",
    "734": "With",
    "735": "Is",
    "736": "AL",
    "737": " word",
    "738": " new",
    "739": " gentle",
    "740": " ear",
    "741": " doth",
    "742": " again",
    "743": " en",
    "744": " V",
    "745": "un",
    "746": "rib",
    "747": "ps",
    "748": "orrow",
    "749": "orn",
    "750": "eunt",
    "751": "able",
    "752": "Exeunt",
    "753": " sl",
    "754": " heart",
    "755": " fo",
    "756": " bre",
    "757": "pt",
    "758": "per",
    "759": "ount",
    "760": "ment",
    "761": "ilt",
    "762": "ff",
    "763": "de",
    "764": "cc",
    "765": "ather",
    "766": "atch",
    "767": "ance",
    "768": " were",
    "769": " wo",
    "770": " gone",
    "771": " copy",
    "772": " Montague",
    "773": "ron",
    "774": "ful",
    "775": "ans",
    "776": "In",
    "777": "Exit",
    "778": " who",
    "779": " tw",
    "780": " back",
    "781": "\r\n    ",
    "782": "way",
    "783": "ull",
    "784": "ose",
    "785": "lect",
    "786": "ither",
    "787": "ig",
    "788": "cen",
    "789": "Where",
    "790": "It",
    "791": "IS",
    "792": "Be",
    "793": "BAL",
    "794": "BALT",
    "795": " take",
    "796": " heaven",
    "797": " how",
    "798": " cl",
    "799": " The",
    "800": "ribut",
    "801": "hed",
    "802": "eak",
    "803": "So",
    "804": "AM",
    "805": " time",
    "806": " old",
    "807": " marri",
    "808": " eyes",
    "809": " call",
    "810": " D",
    "811": "wn",
    "812": "ronic",
    "813": "pl",
    "814": "nder",
    "815": "lectronic",
    "816": "Which",
    "817": "Un",
    "818": "Or",
    "819": "Come",
    "820": " works",
    "821": " dist",
    "822": " cha",
    "823": " br",
    "824": "ving",
    "825": "ress",
    "826": "ings",
    "827": "ick",
    "828": "ence",
    "829": "ee",
    "830": "ci",
    "831": "SC",
    "832": "Romeo",
    "833": "Of",
    "834": "By",
    "835": " wr",
    "836": " men",
    "837": " look",
    "838": " law",
    "839": " ban",
    "840": "rence",
    "841": "reat",
    "842": "own",
    "843": "ife",
    "844": "IR",
    "845": ",\u00e2\u0080\u0094",
    "846": " pre",
    "847": " name",
    "848": " dear",
    "849": " comes",
    "850": " ch",
    "851": " Pr",
    "852": " ke",
    "853": "tis",
    "854": "ough",
    "855": "op",
    "856": "itt",
    "857": "cene",
    "858": "awrence",
    "859": "OR",
    "860": "Ay",
    "861": " true",
    "862": " tr",
    "863": " mine",
    "864": " hear",
    "865": " gra",
    "866": " bed",
    "867": " Prince",
    "868": " Lawrence",
    "869": "well",
    "870": "utio",
    "871": "not",
    "872": "ins",
    "873": "for",
    "874": "ercutio",
    "875": "aint",
    "876": "ave",
    "877": "SCEN",
    "878": "SCENE",
    "879": "No",
    "880": "ANT",
    "881": " \u00e2\u0080\u0098",
    "882": " stand",
    "883": " keep",
    "884": " ru",
    "885": "raw",
    "886": "oundation",
    "887": "lace",
    "888": "iv",
    "889": "ice",
    "890": "day",
    "891": "ates",
    "892": "ale",
    "893": "Scene",
    "894": "ST",
    "895": "PAR",
    "896": "PARIS",
    "897": "If",
    "898": "How",
    "899": "Go",
    "900": " wilt",
    "901": " use",
    "902": " stay",
    "903": " speak",
    "904": " sc",
    "905": " pl",
    "906": " life",
    "907": " lord",
    "908": " hour",
    "909": " father",
    "910": " cannot",
    "911": " blood",
    "912": " St",
    "913": " II",
    "914": " very",
    "915": "ud",
    "916": "lack",
    "917": "erms",
    "918": "ase",
    "919": "Why",
    "920": "US",
    "921": "Now",
    "922": "IRST",
    "923": "FIRST",
    "924": "AG",
    "925": " wit",
    "926": " hence",
    "927": " find",
    "928": " die",
    "929": " des",
    "930": " ad",
    "931": " Lady",
    "932": " Foundation",
    "933": "urs",
    "934": "riend",
    "935": "rief",
    "936": "ower",
    "937": "oud",
    "938": "aught",
    "939": "alk",
    "940": "Then",
    "941": "TY",
    "942": "St",
    "943": "RE",
    "944": " young",
    "945": " think",
    "946": " own",
    "947": " maid",
    "948": " lie",
    "949": " long",
    "950": " had",
    "951": " house",
    "952": " fear",
    "953": " electronic",
    "954": " dre",
    "955": " comp",
    "956": " chi",
    "957": " che",
    "958": " away",
    "959": " Mercutio",
    "960": " ro",
    "961": "oul",
    "962": "ited",
    "963": "ished",
    "964": "hing",
    "965": "ement",
    "966": "arth",
    "967": "Who",
    "968": "We",
    "969": "There",
    "970": "She",
    "971": "SON",
    "972": "SAM",
    "973": "SAMP",
    "974": "SAMPSON",
    "975": "He",
    "976": "ER",
    "977": " world",
    "978": " tom",
    "979": " terms",
    "980": " stre",
    "981": " rem",
    "982": " off",
    "983": " made",
    "984": " joy",
    "985": " head",
    "986": " face",
    "987": " friend",
    "988": " child",
    "989": " beg",
    "990": " before",
    "991": " 1",
    "992": "\r\n       ",
    "993": "urd",
    "994": "ows",
    "995": "old",
    "996": "leep",
    "997": "int",
    "998": "igh",
    "999": "<|endoftext|>"
  },
  "merges": [
    [
      " ",
      "t"
    ],
    [
      "h",
      "e"
    ],
    [
      " ",
      "a"
    ],
    [
      " ",
      "s"
    ],
    [
      "o",
      "u"
    ],
    [
      "i",
      "n"
    ],
    [
      " ",
      "w"
    ],
    [
      " ",
      "m"
    ],
    [
      "\r",
      "\n"
    ],
    [
      "r",
      "e"
    ],
    [
      "h",
      "a"
    ],
    [
      " t",
      "he"
    ],
    [
      "n",
      "d"
    ],
    [
      "i",
      "s"
    ],
    [
      " ",
      "b"
    ],
    [
      "e",
      "r"
    ],
    [
      "\u00e2",
      "\u0080"
    ],
    [
      "o",
      "r"
    ],
    [
      "\r\n",
      "\r"
    ],
    [
      "o",
      "n"
    ],
    [
      "l",
      "l"
    ],
    [
      "i",
      "t"
    ],
    [
      " ",
      "f"
    ],
    [
      "\u00e2\u0080",
      "\u0099"
    ],
    [
      " ",
      "d"
    ],
    [
      " ",
      "l"
    ],
    [
      " ",
      "c"
    ],
    [
      "e",
      "n"
    ],
    [
      "a",
      "r"
    ],
    [
      " t",
      "h"
    ],
    [
      " ",
      "n"
    ],
    [
      "e",
      "s"
    ],
    [
      " ",
      "o"
    ],
    [
      " t",
      "o"
    ],
    [
      "ha",
      "t"
    ],
    [
      "o",
      "m"
    ],
    [
      " ",
      "p"
    ],
    [
      " ",
      "I"
    ],
    [
      "v",
      "e"
    ],
    [
      " a",
      "nd"
    ],
    [
      " ",
      "y"
    ],
    [
      "o",
      "t"
    ],
    [
      " ",
      "he"
    ],
    [
      "a",
      "n"
    ],
    [
      "a",
      "t"
    ],
    [
      "in",
      "g"
    ],
    [
      " ",
      "h"
    ],
    [
      "e",
      "t"
    ],
    [
      " o",
      "f"
    ],
    [
      " y",
      "ou"
    ],
    [
      "s",
      "e"
    ],
    [
      "u",
      "t"
    ],
    [
      " ",
      "in"
    ],
    [
      "s",
      "t"
    ],
    [
      "o",
      "w"
    ],
    [
      " ",
      "g"
    ],
    [
      "a",
      "y"
    ],
    [
      " b",
      "e"
    ],
    [
      "it",
      "h"
    ],
    [
      "g",
      "h"
    ],
    [
      "l",
      "e"
    ],
    [
      "c",
      "e"
    ],
    [
      " ",
      "is"
    ],
    [
      "a",
      "d"
    ],
    [
      "om",
      "e"
    ],
    [
      " ",
      "e"
    ],
    [
      "c",
      "h"
    ],
    [
      " m",
      "e"
    ],
    [
      " m",
      "y"
    ],
    [
      "r",
      "i"
    ],
    [
      " w",
      "ith"
    ],
    [
      "e",
      "d"
    ],
    [
      " n",
      "ot"
    ],
    [
      "l",
      "d"
    ],
    [
      " ",
      "ha"
    ],
    [
      " t",
      "hat"
    ],
    [
      "gh",
      "t"
    ],
    [
      "i",
      "ll"
    ],
    [
      "o",
      "o"
    ],
    [
      " th",
      "ou"
    ],
    [
      " f",
      "or"
    ],
    [
      "i",
      "r"
    ],
    [
      "en",
      "t"
    ],
    [
      "A",
      "nd"
    ],
    [
      " ",
      "u"
    ],
    [
      "a",
      "l"
    ],
    [
      "E",
      "T"
    ],
    [
      "M",
      "E"
    ],
    [
      "u",
      "r"
    ],
    [
      " l",
      "i"
    ],
    [
      "u",
      "l"
    ],
    [
      " s",
      "t"
    ],
    [
      "U",
      "L"
    ],
    [
      "i",
      "d"
    ],
    [
      " th",
      "is"
    ],
    [
      " d",
      "e"
    ],
    [
      "\r\n",
      "\r\n"
    ],
    [
      " ",
      "it"
    ],
    [
      " ",
      " "
    ],
    [
      "r",
      "o"
    ],
    [
      " l",
      "o"
    ],
    [
      "i",
      "m"
    ],
    [
      " ",
      "C"
    ],
    [
      "c",
      "t"
    ],
    [
      "n",
      "t"
    ],
    [
      "k",
      "e"
    ],
    [
      "i",
      "on"
    ],
    [
      " ",
      "P"
    ],
    [
      " w",
      "e"
    ],
    [
      "l",
      "y"
    ],
    [
      "ou",
      "r"
    ],
    [
      "a",
      "in"
    ],
    [
      "R",
      "O"
    ],
    [
      "a",
      "m"
    ],
    [
      "T",
      "he"
    ],
    [
      "RO",
      "ME"
    ],
    [
      "ROME",
      "O"
    ],
    [
      " ",
      "re"
    ],
    [
      "he",
      "r"
    ],
    [
      " a",
      "s"
    ],
    [
      " a",
      "n"
    ],
    [
      " ",
      "R"
    ],
    [
      " ",
      "on"
    ],
    [
      "E",
      "N"
    ],
    [
      " s",
      "o"
    ],
    [
      "c",
      "k"
    ],
    [
      " th",
      "y"
    ],
    [
      " ",
      "L"
    ],
    [
      " he",
      "r"
    ],
    [
      "ome",
      "o"
    ],
    [
      " w",
      "or"
    ],
    [
      "i",
      "ght"
    ],
    [
      "v",
      "er"
    ],
    [
      "a",
      "s"
    ],
    [
      " lo",
      "ve"
    ],
    [
      " w",
      "ill"
    ],
    [
      "a",
      "g"
    ],
    [
      "T",
      "h"
    ],
    [
      "o",
      "re"
    ],
    [
      " s",
      "ha"
    ],
    [
      "e",
      "ll"
    ],
    [
      "e",
      "ct"
    ],
    [
      " ",
      "M"
    ],
    [
      " the",
      "e"
    ],
    [
      "b",
      "er"
    ],
    [
      "oo",
      "d"
    ],
    [
      "ou",
      "ld"
    ],
    [
      " ",
      "k"
    ],
    [
      "ar",
      "t"
    ],
    [
      "I",
      "O"
    ],
    [
      " ",
      "G"
    ],
    [
      "S",
      "E"
    ],
    [
      "r",
      "a"
    ],
    [
      " h",
      "is"
    ],
    [
      " d",
      "o"
    ],
    [
      "h",
      "i"
    ],
    [
      " f",
      "a"
    ],
    [
      " R",
      "omeo"
    ],
    [
      "e",
      "ar"
    ],
    [
      "_",
      "]"
    ],
    [
      "[",
      "_"
    ],
    [
      "UL",
      "I"
    ],
    [
      "ULI",
      "ET"
    ],
    [
      "J",
      "ULIET"
    ],
    [
      "i",
      "f"
    ],
    [
      " ha",
      "ve"
    ],
    [
      ".",
      "_]"
    ],
    [
      " ",
      "or"
    ],
    [
      "i",
      "c"
    ],
    [
      "e",
      "a"
    ],
    [
      "at",
      "h"
    ],
    [
      " s",
      "u"
    ],
    [
      "r",
      "om"
    ],
    [
      "i",
      "l"
    ],
    [
      "A",
      "R"
    ],
    [
      " ",
      "[_"
    ],
    [
      "ou",
      "t"
    ],
    [
      "W",
      "hat"
    ],
    [
      " h",
      "im"
    ],
    [
      "es",
      "t"
    ],
    [
      " s",
      "he"
    ],
    [
      " a",
      "ll"
    ],
    [
      " b",
      "y"
    ],
    [
      "A",
      "P"
    ],
    [
      " you",
      "r"
    ],
    [
      " b",
      "ut"
    ],
    [
      "r",
      "u"
    ],
    [
      " s",
      "h"
    ],
    [
      " ",
      "v"
    ],
    [
      "i",
      "ve"
    ],
    [
      "UL",
      "ET"
    ],
    [
      "AP",
      "ULET"
    ],
    [
      " n",
      "o"
    ],
    [
      "a",
      "ke"
    ],
    [
      " s",
      "e"
    ],
    [
      " m",
      "u"
    ],
    [
      " m",
      "an"
    ],
    [
      " u",
      "p"
    ],
    [
      "on",
      "e"
    ],
    [
      " ",
      "A"
    ],
    [
      " sha",
      "ll"
    ],
    [
      " n",
      "e"
    ],
    [
      "ut",
      "en"
    ],
    [
      "uten",
      "ber"
    ],
    [
      "utenber",
      "g"
    ],
    [
      "an",
      "t"
    ],
    [
      "a",
      "p"
    ],
    [
      " ",
      "F"
    ],
    [
      "es",
      "s"
    ],
    [
      " f",
      "rom"
    ],
    [
      "U",
      "R"
    ],
    [
      "UR",
      "SE"
    ],
    [
      "N",
      "URSE"
    ],
    [
      " ",
      "E"
    ],
    [
      "ou",
      "nd"
    ],
    [
      "j",
      "ect"
    ],
    [
      "e",
      "m"
    ],
    [
      "T",
      "o"
    ],
    [
      " a",
      "t"
    ],
    [
      " ",
      "J"
    ],
    [
      "ou",
      "s"
    ],
    [
      "ro",
      "ject"
    ],
    [
      "or",
      "t"
    ],
    [
      " s",
      "p"
    ],
    [
      " a",
      "re"
    ],
    [
      "h",
      "o"
    ],
    [
      "al",
      "t"
    ],
    [
      "a",
      "ll"
    ],
    [
      "nt",
      "er"
    ],
    [
      "k",
      "s"
    ],
    [
      "in",
      "e"
    ],
    [
      "B",
      "ut"
    ],
    [
      " c",
      "o"
    ],
    [
      " ",
      "O"
    ],
    [
      "t",
      "er"
    ],
    [
      "ot",
      "h"
    ],
    [
      "ha",
      "n"
    ],
    [
      " ",
      "T"
    ],
    [
      "ad",
      "y"
    ],
    [
      "R",
      "I"
    ],
    [
      " c",
      "om"
    ],
    [
      " c",
      "an"
    ],
    [
      "i",
      "et"
    ],
    [
      "he",
      "re"
    ],
    [
      " n",
      "ight"
    ],
    [
      " ",
      "S"
    ],
    [
      "e",
      "p"
    ],
    [
      "at",
      "ion"
    ],
    [
      "at",
      "e"
    ],
    [
      "T",
      "hat"
    ],
    [
      "C",
      "E"
    ],
    [
      " d",
      "is"
    ],
    [
      " s",
      "w"
    ],
    [
      " P",
      "roject"
    ],
    [
      "q",
      "u"
    ],
    [
      "l",
      "a"
    ],
    [
      " E",
      "nter"
    ],
    [
      " C",
      "ap"
    ],
    [
      " ",
      "hat"
    ],
    [
      "ul",
      "iet"
    ],
    [
      "r",
      "ow"
    ],
    [
      " a",
      "m"
    ],
    [
      " G",
      "utenberg"
    ],
    [
      "ul",
      "et"
    ],
    [
      "in",
      "d"
    ],
    [
      "i",
      "e"
    ],
    [
      "a",
      "w"
    ],
    [
      " k",
      "n"
    ],
    [
      " Cap",
      "ulet"
    ],
    [
      "hi",
      "ch"
    ],
    [
      "a",
      "nd"
    ],
    [
      "U",
      "T"
    ],
    [
      " he",
      "re"
    ],
    [
      " a",
      "r"
    ],
    [
      "a",
      "st"
    ],
    [
      " g",
      "o"
    ],
    [
      " de",
      "ath"
    ],
    [
      " a",
      "g"
    ],
    [
      " ",
      "W"
    ],
    [
      " ",
      "N"
    ],
    [
      "u",
      "s"
    ],
    [
      "er",
      "s"
    ],
    [
      "E",
      "x"
    ],
    [
      " J",
      "uliet"
    ],
    [
      "\u00e2\u0080",
      "\u0094"
    ],
    [
      "on",
      "t"
    ],
    [
      " w",
      "hat"
    ],
    [
      " g",
      "ood"
    ],
    [
      "p",
      "p"
    ],
    [
      "r",
      "y"
    ],
    [
      "ME",
      "R"
    ],
    [
      "se",
      "l"
    ],
    [
      "V",
      "O"
    ],
    [
      "VO",
      "L"
    ],
    [
      "VOL",
      "IO"
    ],
    [
      "MER",
      "C"
    ],
    [
      "EN",
      "VOLIO"
    ],
    [
      "B",
      "ENVOLIO"
    ],
    [
      " the",
      "re"
    ],
    [
      " d",
      "ay"
    ],
    [
      "y",
      "b"
    ],
    [
      "yb",
      "alt"
    ],
    [
      "UT",
      "IO"
    ],
    [
      "MERC",
      "UTIO"
    ],
    [
      " h",
      "o"
    ],
    [
      "ur",
      "se"
    ],
    [
      "or",
      "d"
    ],
    [
      "b",
      "le"
    ],
    [
      " s",
      "ay"
    ],
    [
      " ",
      "our"
    ],
    [
      "t",
      "h"
    ],
    [
      "oo",
      "k"
    ],
    [
      "am",
      "e"
    ],
    [
      "RI",
      "AR"
    ],
    [
      "F",
      "or"
    ],
    [
      "F",
      "RIAR"
    ],
    [
      "u",
      "re"
    ],
    [
      "on",
      "g"
    ],
    [
      "he",
      "n"
    ],
    [
      " m",
      "ay"
    ],
    [
      "  ",
      "  "
    ],
    [
      " ",
      "if"
    ],
    [
      " ",
      "H"
    ],
    [
      "ar",
      "d"
    ],
    [
      "a",
      "re"
    ],
    [
      " m",
      "ore"
    ],
    [
      " c",
      "ome"
    ],
    [
      " an",
      "y"
    ],
    [
      "v",
      "en"
    ],
    [
      "u",
      "e"
    ],
    [
      "EN",
      "CE"
    ],
    [
      " the",
      "n"
    ],
    [
      " s",
      "ir"
    ],
    [
      " n",
      "ow"
    ],
    [
      "e",
      "nd"
    ],
    [
      "a",
      "k"
    ],
    [
      "W",
      "R"
    ],
    [
      "WR",
      "ENCE"
    ],
    [
      "A",
      "WRENCE"
    ],
    [
      " b",
      "l"
    ],
    [
      " L",
      "AWRENCE"
    ],
    [
      "u",
      "m"
    ],
    [
      "o",
      "d"
    ],
    [
      " to",
      "o"
    ],
    [
      "n",
      "ce"
    ],
    [
      "f",
      "ore"
    ],
    [
      "e",
      "l"
    ],
    [
      "C",
      "APULET"
    ],
    [
      " m",
      "ar"
    ],
    [
      " l",
      "et"
    ],
    [
      " hat",
      "h"
    ],
    [
      " w",
      "ould"
    ],
    [
      "i",
      "o"
    ],
    [
      "L",
      "A"
    ],
    [
      " on",
      "e"
    ],
    [
      " c",
      "on"
    ],
    [
      "re",
      "s"
    ],
    [
      "a",
      "u"
    ],
    [
      " p",
      "r"
    ],
    [
      " ar",
      "t"
    ],
    [
      " T",
      "ybalt"
    ],
    [
      " ",
      "j"
    ],
    [
      "sel",
      "f"
    ],
    [
      "h",
      "y"
    ],
    [
      "D",
      "Y"
    ],
    [
      " w",
      "as"
    ],
    [
      " de",
      "ad"
    ],
    [
      " ",
      "out"
    ],
    [
      "i",
      "es"
    ],
    [
      "a",
      "id"
    ],
    [
      "LA",
      "DY"
    ],
    [
      " t",
      "han"
    ],
    [
      " e",
      "y"
    ],
    [
      " N",
      "urse"
    ],
    [
      " ",
      "r"
    ],
    [
      "o",
      "ve"
    ],
    [
      "O",
      "N"
    ],
    [
      " sh",
      "ould"
    ],
    [
      " p",
      "ro"
    ],
    [
      " mu",
      "st"
    ],
    [
      " kn",
      "ow"
    ],
    [
      "n",
      "g"
    ],
    [
      "e",
      "re"
    ],
    [
      "ag",
      "e"
    ],
    [
      " wor",
      "k"
    ],
    [
      " the",
      "ir"
    ],
    [
      " p",
      "o"
    ],
    [
      "u",
      "nt"
    ],
    [
      "g",
      "e"
    ],
    [
      "e",
      "f"
    ],
    [
      "e",
      "et"
    ],
    [
      " u",
      "n"
    ],
    [
      " su",
      "ch"
    ],
    [
      " m",
      "ad"
    ],
    [
      " l",
      "ady"
    ],
    [
      " fa",
      "ir"
    ],
    [
      " C",
      "APULET"
    ],
    [
      "ou",
      "se"
    ],
    [
      "Th",
      "ou"
    ],
    [
      "Th",
      "is"
    ],
    [
      " the",
      "y"
    ],
    [
      " s",
      "ome"
    ],
    [
      " a",
      "l"
    ],
    [
      "t",
      "her"
    ],
    [
      "ri",
      "ar"
    ],
    [
      "im",
      "e"
    ],
    [
      " e",
      "x"
    ],
    [
      "id",
      "e"
    ],
    [
      "ent",
      "le"
    ],
    [
      "M",
      "y"
    ],
    [
      " the",
      "m"
    ],
    [
      " he",
      "a"
    ],
    [
      " a",
      "b"
    ],
    [
      " F",
      "riar"
    ],
    [
      "v",
      "es"
    ],
    [
      "ot",
      "her"
    ],
    [
      "a",
      "ck"
    ],
    [
      " we",
      "ll"
    ],
    [
      " co",
      "p"
    ],
    [
      "o",
      "y"
    ],
    [
      "in",
      "k"
    ],
    [
      "Y",
      "ou"
    ],
    [
      " u",
      "s"
    ],
    [
      " ",
      "qu"
    ],
    [
      "ver",
      "y"
    ],
    [
      "ont",
      "ag"
    ],
    [
      "m",
      "an"
    ],
    [
      "is",
      "h"
    ],
    [
      "i",
      "re"
    ],
    [
      " w",
      "hen"
    ],
    [
      " se",
      "e"
    ],
    [
      " p",
      "art"
    ],
    [
      " ha",
      "st"
    ],
    [
      " ",
      "\u00e2\u0080"
    ],
    [
      " ",
      "B"
    ],
    [
      "o",
      "l"
    ],
    [
      "it",
      "e"
    ],
    [
      "is",
      "e"
    ],
    [
      "A",
      "N"
    ],
    [
      " y",
      "et"
    ],
    [
      " up",
      "on"
    ],
    [
      " t",
      "ell"
    ],
    [
      " o",
      "ther"
    ],
    [
      " ha",
      "nd"
    ],
    [
      " d",
      "id"
    ],
    [
      " M",
      "ontag"
    ],
    [
      "  ",
      " "
    ],
    [
      "ur",
      "n"
    ],
    [
      "is",
      "t"
    ],
    [
      "in",
      "ce"
    ],
    [
      "er",
      "c"
    ],
    [
      "A",
      "s"
    ],
    [
      " w",
      "hich"
    ],
    [
      " the",
      "se"
    ],
    [
      " m",
      "ake"
    ],
    [
      " li",
      "ght"
    ],
    [
      " ",
      "What"
    ],
    [
      "o",
      "s"
    ],
    [
      "ear",
      "s"
    ],
    [
      "ar",
      "is"
    ],
    [
      " t",
      "ru"
    ],
    [
      " sw",
      "eet"
    ],
    [
      " mu",
      "ch"
    ],
    [
      " ",
      "\u00e2\u0080\u0099"
    ],
    [
      "ri",
      "ght"
    ],
    [
      "re",
      "e"
    ],
    [
      "is",
      "s"
    ],
    [
      "er",
      "m"
    ],
    [
      "ar",
      "k"
    ],
    [
      " w",
      "here"
    ],
    [
      " li",
      "ke"
    ],
    [
      " g",
      "ive"
    ],
    [
      " f",
      "l"
    ],
    [
      " P",
      "aris"
    ],
    [
      "o",
      "st"
    ],
    [
      "it",
      "y"
    ],
    [
      "f",
      "e"
    ],
    [
      "ar",
      "y"
    ],
    [
      "W",
      "ith"
    ],
    [
      "I",
      "s"
    ],
    [
      "A",
      "L"
    ],
    [
      " wor",
      "d"
    ],
    [
      " ne",
      "w"
    ],
    [
      " g",
      "entle"
    ],
    [
      " e",
      "ar"
    ],
    [
      " d",
      "oth"
    ],
    [
      " ag",
      "ain"
    ],
    [
      " ",
      "en"
    ],
    [
      " ",
      "V"
    ],
    [
      "u",
      "n"
    ],
    [
      "ri",
      "b"
    ],
    [
      "p",
      "s"
    ],
    [
      "or",
      "row"
    ],
    [
      "or",
      "n"
    ],
    [
      "e",
      "unt"
    ],
    [
      "a",
      "ble"
    ],
    [
      "Ex",
      "eunt"
    ],
    [
      " s",
      "l"
    ],
    [
      " he",
      "art"
    ],
    [
      " f",
      "o"
    ],
    [
      " b",
      "re"
    ],
    [
      "p",
      "t"
    ],
    [
      "p",
      "er"
    ],
    [
      "ou",
      "nt"
    ],
    [
      "m",
      "ent"
    ],
    [
      "il",
      "t"
    ],
    [
      "f",
      "f"
    ],
    [
      "d",
      "e"
    ],
    [
      "c",
      "c"
    ],
    [
      "at",
      "her"
    ],
    [
      "at",
      "ch"
    ],
    [
      "an",
      "ce"
    ],
    [
      " we",
      "re"
    ],
    [
      " w",
      "o"
    ],
    [
      " g",
      "one"
    ],
    [
      " cop",
      "y"
    ],
    [
      " Montag",
      "ue"
    ],
    [
      "r",
      "on"
    ],
    [
      "f",
      "ul"
    ],
    [
      "an",
      "s"
    ],
    [
      "I",
      "n"
    ],
    [
      "Ex",
      "it"
    ],
    [
      " w",
      "ho"
    ],
    [
      " t",
      "w"
    ],
    [
      " b",
      "ack"
    ],
    [
      "\r\n",
      "    "
    ],
    [
      "w",
      "ay"
    ],
    [
      "u",
      "ll"
    ],
    [
      "o",
      "se"
    ],
    [
      "le",
      "ct"
    ],
    [
      "it",
      "her"
    ],
    [
      "i",
      "g"
    ],
    [
      "c",
      "en"
    ],
    [
      "W",
      "here"
    ],
    [
      "I",
      "t"
    ],
    [
      "I",
      "S"
    ],
    [
      "B",
      "e"
    ],
    [
      "B",
      "AL"
    ],
    [
      "BAL",
      "T"
    ],
    [
      " t",
      "ake"
    ],
    [
      " hea",
      "ven"
    ],
    [
      " h",
      "ow"
    ],
    [
      " c",
      "l"
    ],
    [
      " ",
      "The"
    ],
    [
      "rib",
      "ut"
    ],
    [
      "he",
      "d"
    ],
    [
      "ea",
      "k"
    ],
    [
      "S",
      "o"
    ],
    [
      "A",
      "M"
    ],
    [
      " t",
      "ime"
    ],
    [
      " o",
      "ld"
    ],
    [
      " mar",
      "ri"
    ],
    [
      " ey",
      "es"
    ],
    [
      " c",
      "all"
    ],
    [
      " ",
      "D"
    ],
    [
      "w",
      "n"
    ],
    [
      "ron",
      "ic"
    ],
    [
      "p",
      "l"
    ],
    [
      "nd",
      "er"
    ],
    [
      "lect",
      "ronic"
    ],
    [
      "W",
      "hich"
    ],
    [
      "U",
      "n"
    ],
    [
      "O",
      "r"
    ],
    [
      "C",
      "ome"
    ],
    [
      " wor",
      "ks"
    ],
    [
      " dis",
      "t"
    ],
    [
      " c",
      "ha"
    ],
    [
      " b",
      "r"
    ],
    [
      "v",
      "ing"
    ],
    [
      "res",
      "s"
    ],
    [
      "ing",
      "s"
    ],
    [
      "i",
      "ck"
    ],
    [
      "en",
      "ce"
    ],
    [
      "e",
      "e"
    ],
    [
      "c",
      "i"
    ],
    [
      "S",
      "C"
    ],
    [
      "R",
      "omeo"
    ],
    [
      "O",
      "f"
    ],
    [
      "B",
      "y"
    ],
    [
      " w",
      "r"
    ],
    [
      " m",
      "en"
    ],
    [
      " l",
      "ook"
    ],
    [
      " l",
      "aw"
    ],
    [
      " b",
      "an"
    ],
    [
      "re",
      "nce"
    ],
    [
      "re",
      "at"
    ],
    [
      "ow",
      "n"
    ],
    [
      "if",
      "e"
    ],
    [
      "I",
      "R"
    ],
    [
      ",",
      "\u00e2\u0080\u0094"
    ],
    [
      " p",
      "re"
    ],
    [
      " n",
      "ame"
    ],
    [
      " de",
      "ar"
    ],
    [
      " com",
      "es"
    ],
    [
      " c",
      "h"
    ],
    [
      " P",
      "r"
    ],
    [
      " ",
      "ke"
    ],
    [
      "t",
      "is"
    ],
    [
      "ou",
      "gh"
    ],
    [
      "o",
      "p"
    ],
    [
      "it",
      "t"
    ],
    [
      "cen",
      "e"
    ],
    [
      "aw",
      "rence"
    ],
    [
      "O",
      "R"
    ],
    [
      "A",
      "y"
    ],
    [
      " tru",
      "e"
    ],
    [
      " t",
      "r"
    ],
    [
      " m",
      "ine"
    ],
    [
      " he",
      "ar"
    ],
    [
      " g",
      "ra"
    ],
    [
      " be",
      "d"
    ],
    [
      " Pr",
      "ince"
    ],
    [
      " L",
      "awrence"
    ],
    [
      "w",
      "ell"
    ],
    [
      "ut",
      "io"
    ],
    [
      "n",
      "ot"
    ],
    [
      "in",
      "s"
    ],
    [
      "f",
      "or"
    ],
    [
      "erc",
      "utio"
    ],
    [
      "ain",
      "t"
    ],
    [
      "a",
      "ve"
    ],
    [
      "SC",
      "EN"
    ],
    [
      "SCEN",
      "E"
    ],
    [
      "N",
      "o"
    ],
    [
      "AN",
      "T"
    ],
    [
      " \u00e2\u0080",
      "\u0098"
    ],
    [
      " st",
      "and"
    ],
    [
      " ke",
      "ep"
    ],
    [
      " ",
      "ru"
    ],
    [
      "ra",
      "w"
    ],
    [
      "ound",
      "ation"
    ],
    [
      "la",
      "ce"
    ],
    [
      "i",
      "v"
    ],
    [
      "i",
      "ce"
    ],
    [
      "d",
      "ay"
    ],
    [
      "at",
      "es"
    ],
    [
      "a",
      "le"
    ],
    [
      "S",
      "cene"
    ],
    [
      "S",
      "T"
    ],
    [
      "P",
      "AR"
    ],
    [
      "PAR",
      "IS"
    ],
    [
      "I",
      "f"
    ],
    [
      "H",
      "ow"
    ],
    [
      "G",
      "o"
    ],
    [
      " w",
      "ilt"
    ],
    [
      " u",
      "se"
    ],
    [
      " st",
      "ay"
    ],
    [
      " sp",
      "eak"
    ],
    [
      " s",
      "c"
    ],
    [
      " p",
      "l"
    ],
    [
      " li",
      "fe"
    ],
    [
      " l",
      "ord"
    ],
    [
      " h",
      "our"
    ],
    [
      " f",
      "ather"
    ],
    [
      " can",
      "not"
    ],
    [
      " bl",
      "ood"
    ],
    [
      " S",
      "t"
    ],
    [
      " I",
      "I"
    ],
    [
      " ",
      "very"
    ],
    [
      "u",
      "d"
    ],
    [
      "la",
      "ck"
    ],
    [
      "erm",
      "s"
    ],
    [
      "a",
      "se"
    ],
    [
      "W",
      "hy"
    ],
    [
      "U",
      "S"
    ],
    [
      "N",
      "ow"
    ],
    [
      "IR",
      "ST"
    ],
    [
      "F",
      "IRST"
    ],
    [
      "A",
      "G"
    ],
    [
      " w",
      "it"
    ],
    [
      " he",
      "nce"
    ],
    [
      " f",
      "ind"
    ],
    [
      " d",
      "ie"
    ],
    [
      " d",
      "es"
    ],
    [
      " a",
      "d"
    ],
    [
      " L",
      "ady"
    ],
    [
      " F",
      "oundation"
    ],
    [
      "ur",
      "s"
    ],
    [
      "ri",
      "end"
    ],
    [
      "ri",
      "ef"
    ],
    [
      "ow",
      "er"
    ],
    [
      "ou",
      "d"
    ],
    [
      "au",
      "ght"
    ],
    [
      "al",
      "k"
    ],
    [
      "The",
      "n"
    ],
    [
      "T",
      "Y"
    ],
    [
      "S",
      "t"
    ],
    [
      "R",
      "E"
    ],
    [
      " you",
      "ng"
    ],
    [
      " th",
      "ink"
    ],
    [
      " o",
      "wn"
    ],
    [
      " m",
      "aid"
    ],
    [
      " li",
      "e"
    ],
    [
      " l",
      "ong"
    ],
    [
      " ha",
      "d"
    ],
    [
      " h",
      "ouse"
    ],
    [
      " f",
      "ear"
    ],
    [
      " e",
      "lectronic"
    ],
    [
      " d",
      "re"
    ],
    [
      " com",
      "p"
    ],
    [
      " c",
      "hi"
    ],
    [
      " c",
      "he"
    ],
    [
      " a",
      "way"
    ],
    [
      " M",
      "ercutio"
    ],
    [
      " ",
      "ro"
    ],
    [
      "ou",
      "l"
    ],
    [
      "it",
      "ed"
    ],
    [
      "is",
      "hed"
    ],
    [
      "h",
      "ing"
    ],
    [
      "em",
      "ent"
    ],
    [
      "art",
      "h"
    ],
    [
      "W",
      "ho"
    ],
    [
      "W",
      "e"
    ],
    [
      "The",
      "re"
    ],
    [
      "S",
      "he"
    ],
    [
      "S",
      "ON"
    ],
    [
      "S",
      "AM"
    ],
    [
      "SAM",
      "P"
    ],
    [
      "SAMP",
      "SON"
    ],
    [
      "H",
      "e"
    ],
    [
      "E",
      "R"
    ],
    [
      " wor",
      "ld"
    ],
    [
      " to",
      "m"
    ],
    [
      " t",
      "erms"
    ],
    [
      " st",
      "re"
    ],
    [
      " re",
      "m"
    ],
    [
      " of",
      "f"
    ],
    [
      " mad",
      "e"
    ],
    [
      " j",
      "oy"
    ],
    [
      " he",
      "ad"
    ],
    [
      " fa",
      "ce"
    ],
    [
      " f",
      "riend"
    ],
    [
      " chi",
      "ld"
    ],
    [
      " be",
      "g"
    ],
    [
      " be",
      "fore"
    ],
    [
      " ",
      "1"
    ],
    [
      "\r\n    ",
      "   "
    ],
    [
      "ur",
      "d"
    ],
    [
      "ow",
      "s"
    ],
    [
      "o",
      "ld"
    ],
    [
      "le",
      "ep"
    ],
    [
      "in",
      "t"
    ],
    [
      "i",
      "gh"
    ]
  ]
}