{
  "vocab_size": 3000,
  "special_tokens": [
    "<pad>",
    "<unk>"
  ],
  "vocab": {
    "0": "\u0000",
    "1": "\u0001",
    "2": "\u0002",
    "3": "\u0003",
    "4": "\u0004",
    "5": "\u0005",
    "6": "\u0006",
    "7": "\u0007",
    "8": "\b",
    "9": "\t",
    "10": "\n",
    "11": "\u000b",
    "12": "\f",
    "13": "\r",
    "14": "\u000e",
    "15": "\u000f",
    "16": "\u0010",
    "17": "\u0011",
    "18": "\u0012",
    "19": "\u0013",
    "20": "\u0014",
    "21": "\u0015",
    "22": "\u0016",
    "23": "\u0017",
    "24": "\u0018",
    "25": "\u0019",
    "26": "\u001a",
    "27": "\u001b",
    "28": "\u001c",
    "29": "\u001d",
    "30": "\u001e",
    "31": "\u001f",
    "32": " ",
    "33": "!",
    "34": "\"",
    "35": "#",
    "36": "$",
    "37": "%",
    "38": "&",
    "39": "'",
    "40": "(",
    "41": ")",
    "42": "*",
    "43": "+",
    "44": ",",
    "45": "-",
    "46": ".",
    "47": "/",
    "48": "0",
    "49": "1",
    "50": "2",
    "51": "3",
    "52": "4",
    "53": "5",
    "54": "6",
    "55": "7",
    "56": "8",
    "57": "9",
    "58": ":",
    "59": ";",
    "60": "<",
    "61": "=",
    "62": ">",
    "63": "?",
    "64": "@",
    "65": "A",
    "66": "B",
    "67": "C",
    "68": "D",
    "69": "E",
    "70": "F",
    "71": "G",
    "72": "H",
    "73": "I",
    "74": "J",
    "75": "K",
    "76": "L",
    "77": "M",
    "78": "N",
    "79": "O",
    "80": "P",
    "81": "Q",
    "82": "R",
    "83": "S",
    "84": "T",
    "85": "U",
    "86": "V",
    "87": "W",
    "88": "X",
    "89": "Y",
    "90": "Z",
    "91": "[",
    "92": "\\",
    "93": "]",
    "94": "^",
    "95": "_",
    "96": "`",
    "97": "a",
    "98": "b",
    "99": "c",
    "100": "d",
    "101": "e",
    "102": "f",
    "103": "g",
    "104": "h",
    "105": "i",
    "106": "j",
    "107": "k",
    "108": "l",
    "109": "m",
    "110": "n",
    "111": "o",
    "112": "p",
    "113": "q",
    "114": "r",
    "115": "s",
    "116": "t",
    "117": "u",
    "118": "v",
    "119": "w",
    "120": "x",
    "121": "y",
    "122": "z",
    "123": "{",
    "124": "|",
    "125": "}",
    "126": "~",
    "127": "\u007f",
    "128": "\u0080",
    "129": "\u0081",
    "130": "\u0082",
    "131": "\u0083",
    "132": "\u0084",
    "133": "\u0085",
    "134": "\u0086",
    "135": "\u0087",
    "136": "\u0088",
    "137": "\u0089",
    "138": "\u008a",
    "139": "\u008b",
    "140": "\u008c",
    "141": "\u008d",
    "142": "\u008e",
    "143": "\u008f",
    "144": "\u0090",
    "145": "\u0091",
    "146": "\u0092",
    "147": "\u0093",
    "148": "\u0094",
    "149": "\u0095",
    "150": "\u0096",
    "151": "\u0097",
    "152": "\u0098",
    "153": "\u0099",
    "154": "\u009a",
    "155": "\u009b",
    "156": "\u009c",
    "157": "\u009d",
    "158": "\u009e",
    "159": "\u009f",
    "160": "\u00a0",
    "161": "\u00a1",
    "162": "\u00a2",
    "163": "\u00a3",
    "164": "\u00a4",
    "165": "\u00a5",
    "166": "\u00a6",
    "167": "\u00a7",
    "168": "\u00a8",
    "169": "\u00a9",
    "170": "\u00aa",
    "171": "\u00ab",
    "172": "\u00ac",
    "173": "\u00ad",
    "174": "\u00ae",
    "175": "\u00af",
    "176": "\u00b0",
    "177": "\u00b1",
    "178": "\u00b2",
    "179": "\u00b3",
    "180": "\u00b4",
    "181": "\u00b5",
    "182": "\u00b6",
    "183": "\u00b7",
    "184": "\u00b8",
    "185": "\u00b9",
    "186": "\u00ba",
    "187": "\u00bb",
    "188": "\u00bc",
    "189": "\u00bd",
    "190": "\u00be",
    "191": "\u00bf",
    "192": "\u00c0",
    "193": "\u00c1",
    "194": "\u00c2",
    "195": "\u00c3",
    "196": "\u00c4",
    "197": "\u00c5",
    "198": "\u00c6",
    "199": "\u00c7",
    "200": "\u00c8",
    "201": "\u00c9",
    "202": "\u00ca",
    "203": "\u00cb",
    "204": "\u00cc",
    "205": "\u00cd",
    "206": "\u00ce",
    "207": "\u00cf",
    "208": "\u00d0",
    "209": "\u00d1",
    "210": "\u00d2",
    "211": "\u00d3",
    "212": "\u00d4",
    "213": "\u00d5",
    "214": "\u00d6",
    "215": "\u00d7",
    "216": "\u00d8",
    "217": "\u00d9",
    "218": "\u00da",
    "219": "\u00db",
    "220": "\u00dc",
    "221": "\u00dd",
    "222": "\u00de",
    "223": "\u00df",
    "224": "\u00e0",
    "225": "\u00e1",
    "226": "\u00e2",
    "227": "\u00e3",
    "228": "\u00e4",
    "229": "\u00e5",
    "230": "\u00e6",
    "231": "\u00e7",
    "232": "\u00e8",
    "233": "\u00e9",
    "234": "\u00ea",
    "235": "\u00eb",
    "236": "\u00ec",
    "237": "\u00ed",
    "238": "\u00ee",
    "239": "\u00ef",
    "240": "\u00f0",
    "241": "\u00f1",
    "242": "\u00f2",
    "243": "\u00f3",
    "244": "\u00f4",
    "245": "\u00f5",
    "246": "\u00f6",
    "247": "\u00f7",
    "248": "\u00f8",
    "249": "\u00f9",
    "250": "\u00fa",
    "251": "\u00fb",
    "252": "\u00fc",
    "253": "\u00fd",
    "254": "\u00fe",
    "255": "\u00ff",
    "256": " t",
    "257": "he",
    "258": " a",
    "259": "in",
    "260": " the",
    "261": " s",
    "262": " w",
    "263": " o",
    "264": "re",
    "265": "nd",
    "266": "ha",
    "267": "ou",
    "268": "er",
    "269": " b",
    "270": "hi",
    "271": " m",
    "272": "ing",
    "273": "le",
    "274": " f",
    "275": "it",
    "276": "\u00e2\u0080",
    "277": " and",
    "278": " of",
    "279": " c",
    "280": "ed",
    "281": "en",
    "282": "on",
    "283": "or",
    "284": " to",
    "285": "ll",
    "286": "st",
    "287": " in",
    "288": "ar",
    "289": "an",
    "290": " d",
    "291": "at",
    "292": "es",
    "293": " p",
    "294": " he",
    "295": "om",
    "296": " hi",
    "297": " n",
    "298": "is",
    "299": " ha",
    "300": " l",
    "301": "hat",
    "302": "ow",
    "303": " g",
    "304": "ut",
    "305": "as",
    "306": "\r\n",
    "307": "ly",
    "308": " y",
    "309": " I",
    "310": "se",
    "311": " be",
    "312": "ot",
    "313": "ve",
    "314": "ld",
    "315": "gh",
    "316": "\r\n\r",
    "317": " e",
    "318": " that",
    "319": " on",
    "320": "ch",
    "321": "id",
    "322": " it",
    "323": " you",
    "324": " u",
    "325": " his",
    "326": "ith",
    "327": "ay",
    "328": "ver",
    "329": "\u00e2\u0080\u0099",
    "330": "ce",
    "331": "the",
    "332": "ad",
    "333": " for",
    "334": " with",
    "335": "ho",
    "336": "al",
    "337": "ir",
    "338": " as",
    "339": "et",
    "340": "ent",
    "341": " st",
    "342": "ri",
    "343": "\u00e2\u0080\u009c",
    "344": "ck",
    "345": "ro",
    "346": " se",
    "347": " th",
    "348": " is",
    "349": "ght",
    "350": " was",
    "351": " T",
    "352": "ur",
    "353": " we",
    "354": "ke",
    "355": "\u00e2\u0080\u009d",
    "356": " re",
    "357": "ill",
    "358": "his",
    "359": "and",
    "360": "ain",
    "361": " h",
    "362": " him",
    "363": " all",
    "364": " A",
    "365": " an",
    "366": "od",
    "367": "us",
    "368": "\u00e2\u0080\u0094",
    "369": "am",
    "370": " not",
    "371": "ion",
    "372": " me",
    "373": " so",
    "374": "ss",
    "375": "ome",
    "376": " at",
    "377": "ore",
    "378": "il",
    "379": " S",
    "380": "ct",
    "381": "im",
    "382": "rom",
    "383": " su",
    "384": "ra",
    "385": "ould",
    "386": " but",
    "387": " this",
    "388": "if",
    "389": "hen",
    "390": "ter",
    "391": " up",
    "392": " sa",
    "393": "hale",
    "394": "ic",
    "395": "pe",
    "396": " by",
    "397": " whi",
    "398": "ast",
    "399": " from",
    "400": "ight",
    "401": " had",
    "402": "qu",
    "403": "out",
    "404": " have",
    "405": "her",
    "406": " my",
    "407": "ge",
    "408": "ous",
    "409": " le",
    "410": "to",
    "411": " de",
    "412": "all",
    "413": "red",
    "414": "ong",
    "415": " or",
    "416": "ble",
    "417": "ard",
    "418": " one",
    "419": "lo",
    "420": "rou",
    "421": " they",
    "422": "ant",
    "423": " P",
    "424": "ther",
    "425": "ul",
    "426": "th",
    "427": " \u00e2\u0080\u009c",
    "428": " them",
    "429": " go",
    "430": " man",
    "431": " li",
    "432": " who",
    "433": "nt",
    "434": " v",
    "435": " W",
    "436": "ok",
    "437": " whale",
    "438": "em",
    "439": " B",
    "440": " The",
    "441": "ers",
    "442": " are",
    "443": " k",
    "444": " were",
    "445": "led",
    "446": "ind",
    "447": " there",
    "448": ".\u00e2\u0080\u009d",
    "449": "un",
    "450": "hip",
    "451": " do",
    "452": "sel",
    "453": " her",
    "454": " al",
    "455": "ess",
    "456": " will",
    "457": " H",
    "458": " their",
    "459": "art",
    "460": "ak",
    "461": "own",
    "462": "pt",
    "463": " no",
    "464": "po",
    "465": " ne",
    "466": "la",
    "467": "um",
    "468": " out",
    "469": "ell",
    "470": " when",
    "471": "one",
    "472": "ven",
    "473": " which",
    "474": "very",
    "475": " ab",
    "476": " your",
    "477": " M",
    "478": "per",
    "479": "ine",
    "480": "te",
    "481": "ame",
    "482": " con",
    "483": " some",
    "484": " C",
    "485": "ust",
    "486": " bo",
    "487": "li",
    "488": "ost",
    "489": " sh",
    "490": " r",
    "491": "ide",
    "492": "reat",
    "493": "here",
    "494": " ship",
    "495": " now",
    "496": "our",
    "497": "ort",
    "498": "ist",
    "499": " then",
    "500": " wor",
    "501": " thou",
    "502": "han",
    "503": "res",
    "504": " she",
    "505": " ag",
    "506": "ake",
    "507": " com",
    "508": "we",
    "509": " lo",
    "510": "ep",
    "511": " upon",
    "512": "ue",
    "513": " said",
    "514": " into",
    "515": "self",
    "516": " un",
    "517": " N",
    "518": "ac",
    "519": "ate",
    "520": "ry",
    "521": "wn",
    "522": " other",
    "523": " would",
    "524": "fore",
    "525": " over",
    "526": "pp",
    "527": " sp",
    "528": " any",
    "529": "hed",
    "530": " ex",
    "531": "able",
    "532": " fe",
    "533": " co",
    "534": " like",
    "535": " can",
    "536": " been",
    "537": "ach",
    "538": "ation",
    "539": " F",
    "540": " what",
    "541": " us",
    "542": " j",
    "543": "ive",
    "544": "ag",
    "545": " about",
    "546": " am",
    "547": "ig",
    "548": "sses",
    "549": " ro",
    "550": "way",
    "551": " U",
    "552": "of",
    "553": " more",
    "554": "lysses",
    "555": " kn",
    "556": "round",
    "557": " po",
    "558": " hand",
    "559": "  ",
    "560": "est",
    "561": "ound",
    "562": "ish",
    "563": " again",
    "564": " D",
    "565": "ving",
    "566": " sea",
    "567": " if",
    "568": " ca",
    "569": " G",
    "570": "urn",
    "571": "ack",
    "572": " ho",
    "573": " L",
    "574": "ran",
    "575": "el",
    "576": " has",
    "577": " af",
    "578": "ity",
    "579": " sha",
    "580": " ye",
    "581": ",\u00e2\u0080\u009d",
    "582": " But",
    "583": " pro",
    "584": " E",
    "585": " old",
    "586": " St",
    "587": "ink",
    "588": "so",
    "589": "ree",
    "590": "ings",
    "591": " tim",
    "592": "de",
    "593": "ves",
    "594": " down",
    "595": "ors",
    "596": "less",
    "597": "ull",
    "598": " off",
    "599": "nder",
    "600": "ars",
    "601": "hab",
    "602": "uck",
    "603": "ally",
    "604": " men",
    "605": "wo",
    "606": "ub",
    "607": " Ulysses",
    "608": " qu",
    "609": " O",
    "610": "uch",
    "611": " see",
    "612": "ade",
    "613": "ple",
    "614": "be",
    "615": "ft",
    "616": " did",
    "617": "ward",
    "618": "ure",
    "619": " long",
    "620": " own",
    "621": "ass",
    "622": "ber",
    "623": "hing",
    "624": " these",
    "625": "other",
    "626": " how",
    "627": "ol",
    "628": "ies",
    "629": " may",
    "630": "row",
    "631": "ect",
    "632": "ouse",
    "633": " say",
    "634": " here",
    "635": "itt",
    "636": "ca",
    "637": " har",
    "638": "ious",
    "639": " great",
    "640": "ather",
    "641": " where",
    "642": " seem",
    "643": " He",
    "644": "ount",
    "645": "age",
    "646": " Ahab",
    "647": "ng",
    "648": "ved",
    "649": " wat",
    "650": " such",
    "651": " only",
    "652": "ance",
    "653": " ar",
    "654": " very",
    "655": " way",
    "656": "ire",
    "657": " should",
    "658": "ling",
    "659": "equ",
    "660": "ness",
    "661": " head",
    "662": "ark",
    "663": "man",
    "664": "ever",
    "665": " day",
    "666": "ele",
    "667": " than",
    "668": " It",
    "669": " en",
    "670": "ning",
    "671": "ab",
    "672": "hose",
    "673": " pe",
    "674": " after",
    "675": " still",
    "676": "rew",
    "677": " our",
    "678": " time",
    "679": " boat",
    "680": " house",
    "681": " before",
    "682": " fa",
    "683": "\r\n ",
    "684": "les",
    "685": " though",
    "686": " come",
    "687": " J",
    "688": " two",
    "689": " look",
    "690": "ated",
    "691": " its",
    "692": "ans",
    "693": "ick",
    "694": "ord",
    "695": " sw",
    "696": "rough",
    "697": " could",
    "698": " must",
    "699": " fo",
    "700": " ri",
    "701": "ff",
    "702": " pl",
    "703": " good",
    "704": "ried",
    "705": " much",
    "706": "ife",
    "707": " per",
    "708": "ye",
    "709": "that",
    "710": " im",
    "711": "int",
    "712": " pre",
    "713": "ath",
    "714": "ove",
    "715": "ise",
    "716": " yet",
    "717": " back",
    "718": " spe",
    "719": " every",
    "720": "ud",
    "721": " went",
    "722": " round",
    "723": " made",
    "724": "The",
    "725": " while",
    "726": " part",
    "727": "irst",
    "728": "ie",
    "729": "are",
    "730": "ptain",
    "731": "ood",
    "732": " those",
    "733": " tell",
    "734": "ons",
    "735": "for",
    "736": " might",
    "737": " know",
    "738": "ks",
    "739": " most",
    "740": " ke",
    "741": "cc",
    "742": " hea",
    "743": "\u00e2\u0080\u0098",
    "744": " never",
    "745": " god",
    "746": " dis",
    "747": "land",
    "748": "ps",
    "749": "eg",
    "750": "men",
    "751": "erv",
    "752": "ene",
    "753": "TE",
    "754": "ful",
    "755": " sm",
    "756": "ough",
    "757": "not",
    "758": "ci",
    "759": "ces",
    "760": " ra",
    "761": "!\u00e2\u0080\u009d",
    "762": " cha",
    "763": "oth",
    "764": " through",
    "765": " Whale",
    "766": " And",
    "767": "HA",
    "768": " pla",
    "769": "oy",
    "770": " last",
    "771": "most",
    "772": " bl",
    "773": "hes",
    "774": "ave",
    "775": "ert",
    "776": " side",
    "777": "ment",
    "778": " even",
    "779": "ions",
    "780": " tr",
    "781": " came",
    "782": " br",
    "783": " let",
    "784": "mach",
    "785": "machus",
    "786": " away",
    "787": "ubb",
    "788": " set",
    "789": " first",
    "790": " ad",
    "791": "ite",
    "792": "?\u00e2\u0080\u009d",
    "793": " sc",
    "794": "ced",
    "795": "TER",
    "796": "ject",
    "797": " water",
    "798": " sail",
    "799": "ice",
    "800": "ary",
    "801": " among",
    "802": "ittle",
    "803": " home",
    "804": " beg",
    "805": " take",
    "806": " get",
    "807": "ger",
    "808": "PTER",
    "809": "HAPTER",
    "810": "resent",
    "811": "arb",
    "812": "Que",
    "813": " str",
    "814": " end",
    "815": "ign",
    "816": "ap",
    "817": "ild",
    "818": " bet",
    "819": "co",
    "820": "ne",
    "821": "me",
    "822": "ught",
    "823": "head",
    "824": " many",
    "825": "ory",
    "826": "omet",
    "827": "fe",
    "828": " himself",
    "829": " Y",
    "830": "read",
    "831": "elemachus",
    "832": " till",
    "833": " ever",
    "834": "perm",
    "835": "iv",
    "836": " make",
    "837": "ting",
    "838": "CHAPTER",
    "839": " shall",
    "840": " son",
    "841": " being",
    "842": "ty",
    "843": "ail",
    "844": " too",
    "845": "ress",
    "846": " turn",
    "847": "aking",
    "848": " well",
    "849": " (",
    "850": " R",
    "851": "whi",
    "852": "with",
    "853": " seemed",
    "854": " clo",
    "855": "ily",
    "856": " rem",
    "857": " hands",
    "858": "itors",
    "859": " under",
    "860": " fl",
    "861": " cl",
    "862": "ian",
    "863": "ged",
    "864": " without",
    "865": "rie",
    "866": "by",
    "867": " little",
    "868": " far",
    "869": "equeg",
    "870": "aid",
    "871": "Queequeg",
    "872": " three",
    "873": " cont",
    "874": " Ca",
    "875": "wards",
    "876": " work",
    "877": " once",
    "878": " car",
    "879": " land",
    "880": " comp",
    "881": " both",
    "882": " 1",
    "883": "ople",
    "884": "But",
    "885": " mat",
    "886": "iz",
    "887": "use",
    "888": "yes",
    "889": "sp",
    "890": " same",
    "891": "orn",
    "892": " cal",
    "893": "\r\n\r\n\r",
    "894": " nor",
    "895": " gl",
    "896": "ren",
    "897": "but",
    "898": " stran",
    "899": " Stubb",
    "900": " pr",
    "901": "ted",
    "902": "ence",
    "903": "ows",
    "904": " also",
    "905": " think",
    "906": " saw",
    "907": " heart",
    "908": "ering",
    "909": "bo",
    "910": "aw",
    "911": "com",
    "912": " wind",
    "913": " In",
    "914": " took",
    "915": "up",
    "916": "hy",
    "917": "go",
    "918": " gr",
    "919": " father",
    "920": "ern",
    "921": " mar",
    "922": "pen",
    "923": " against",
    "924": "cl",
    "925": " people",
    "926": " ans",
    "927": "ible",
    "928": "ered",
    "929": "als",
    "930": " stand",
    "931": "ds",
    "932": "berg",
    "933": "ating",
    "934": "ase",
    "935": " suitors",
    "936": " somet",
    "937": " night",
    "938": " full",
    "939": "ury",
    "940": "med",
    "941": " dist",
    "942": " chi",
    "943": " sun",
    "944": " [",
    "945": "ms",
    "946": "ix",
    "947": " got",
    "948": "pect",
    "949": " soon",
    "950": "ular",
    "951": " whales",
    "952": " ent",
    "953": " wo",
    "954": " sle",
    "955": " des",
    "956": " thought",
    "957": " put",
    "958": " present",
    "959": " eyes",
    "960": "ied",
    "961": " mast",
    "962": " harpo",
    "963": " sl",
    "964": "vi",
    "965": " acc",
    "966": "ru",
    "967": "cha",
    "968": " heaven",
    "969": " thi",
    "970": " There",
    "971": " Telemachus",
    "972": " For",
    "973": "illed",
    "974": " pass",
    "975": " world",
    "976": " Queequeg",
    "977": "lf",
    "978": "ched",
    "979": " ob",
    "980": "you",
    "981": " thing",
    "982": " hold",
    "983": "arbuck",
    "984": " seen",
    "985": " \u00e2\u0080\u0098",
    "986": "sed",
    "987": "ped",
    "988": "ody",
    "989": "mer",
    "990": " As",
    "991": "turn",
    "992": "side",
    "993": "ace",
    "994": " another",
    "995": "uten",
    "996": "den",
    "997": " heard",
    "998": "pl",
    "999": "cks",
    "1000": " inst",
    "1001": "ten",
    "1002": " fell",
    "1003": " each",
    "1004": " gi",
    "1005": " Then",
    "1006": " life",
    "1007": " give",
    "1008": " sk",
    "1009": " whole",
    "1010": " place",
    "1011": "utenberg",
    "1012": "lent",
    "1013": " things",
    "1014": " found",
    "1015": "rink",
    "1016": "iled",
    "1017": "ations",
    "1018": "aring",
    "1019": "su",
    "1020": "ef",
    "1021": " whe",
    "1022": " gods",
    "1023": " dead",
    "1024": " crew",
    "1025": "ont",
    "1026": " fore",
    "1027": "ways",
    "1028": " mind",
    "1029": "thing",
    "1030": " ste",
    "1031": " Jove",
    "1032": " sub",
    "1033": " dra",
    "1034": " Captain",
    "1035": " sho",
    "1036": " bed",
    "1037": "ask",
    "1038": " te",
    "1039": " left",
    "1040": " Pro",
    "1041": "ertain",
    "1042": "equod",
    "1043": "wered",
    "1044": "ither",
    "1045": "der",
    "1046": " white",
    "1047": " wa",
    "1048": " almost",
    "1049": "ner",
    "1050": " just",
    "1051": " hu",
    "1052": " cons",
    "1053": " answered",
    "1054": "ung",
    "1055": "right",
    "1056": "ical",
    "1057": " near",
    "1058": " light",
    "1059": " cried",
    "1060": " Starbuck",
    "1061": "ished",
    "1062": "tle",
    "1063": "len",
    "1064": " sort",
    "1065": "mon",
    "1066": "ener",
    "1067": " right",
    "1068": " keep",
    "1069": " _",
    "1070": "its",
    "1071": " want",
    "1072": " bow",
    "1073": "    ",
    "1074": "ts",
    "1075": "oment",
    "1076": "ins",
    "1077": "ates",
    "1078": " hel",
    "1079": " hard",
    "1080": " going",
    "1081": " count",
    "1082": " So",
    "1083": "rought",
    "1084": "riend",
    "1085": "ching",
    "1086": " find",
    "1087": " bro",
    "1088": "ween",
    "1089": " nothing",
    "1090": "ship",
    "1091": "like",
    "1092": "ib",
    "1093": " wom",
    "1094": "har",
    "1095": "hus",
    "1096": "cy",
    "1097": ".]",
    "1098": " read",
    "1099": " feet",
    "1100": "him",
    "1101": " ter",
    "1102": "selves",
    "1103": "mb",
    "1104": "ging",
    "1105": "ale",
    "1106": " sleep",
    "1107": " This",
    "1108": " Pequod",
    "1109": "king",
    "1110": " matter",
    "1111": " ear",
    "1112": " When",
    "1113": "ls",
    "1114": "ex",
    "1115": "ction",
    "1116": "ason",
    "1117": "ys",
    "1118": "ened",
    "1119": "air",
    "1120": " along",
    "1121": "was",
    "1122": "ower",
    "1123": "llow",
    "1124": "where",
    "1125": "now",
    "1126": "ew",
    "1127": "ained",
    "1128": " young",
    "1129": " lay",
    "1130": " deck",
    "1131": "ures",
    "1132": "pose",
    "1133": " sir",
    "1134": " point",
    "1135": "there",
    "1136": "inerv",
    "1137": "inerva",
    "1138": "ats",
    "1139": " sup",
    "1140": " moment",
    "1141": "vil",
    "1142": " told",
    "1143": " therefore",
    "1144": " che",
    "1145": " If",
    "1146": "ying",
    "1147": "outh",
    "1148": " best",
    "1149": "ngth",
    "1150": "irc",
    "1151": "ah",
    "1152": " sing",
    "1153": " called",
    "1154": "this",
    "1155": " cour",
    "1156": " Project",
    "1157": "ucket",
    "1158": "ial",
    "1159": ".\u00e2\u0080\u0099",
    "1160": " return",
    "1161": " however",
    "1162": " air",
    "1163": " They",
    "1164": "vent",
    "1165": "ip",
    "1166": "gether",
    "1167": " whether",
    "1168": " towards",
    "1169": " poor",
    "1170": " line",
    "1171": " myself",
    "1172": " el",
    "1173": "iness",
    "1174": " thus",
    "1175": " rest",
    "1176": " res",
    "1177": " rep",
    "1178": " mon",
    "1179": " inde",
    "1180": " done",
    "1181": " app",
    "1182": "lack",
    "1183": "arge",
    "1184": " Gutenberg",
    "1185": " V",
    "1186": "rit",
    "1187": "oun",
    "1188": "inous",
    "1189": "ee",
    "1190": "cause",
    "1191": "ably",
    "1192": " name",
    "1193": " ir",
    "1194": "oyage",
    "1195": "ition",
    "1196": "!\u00e2\u0080\u0094",
    "1197": " sur",
    "1198": " inter",
    "1199": " high",
    "1200": " between",
    "1201": "gs",
    "1202": "And",
    "1203": " small",
    "1204": " half",
    "1205": " friend",
    "1206": " da",
    "1207": "whale",
    "1208": " sat",
    "1209": " exce",
    "1210": "what",
    "1211": "ross",
    "1212": "rave",
    "1213": "ised",
    "1214": "ches",
    "1215": "He",
    "1216": " body",
    "1217": "sh",
    "1218": "orning",
    "1219": "lood",
    "1220": "long",
    "1221": " something",
    "1222": " open",
    "1223": "ret",
    "1224": "ook",
    "1225": " ships",
    "1226": " shar",
    "1227": " cannot",
    "1228": "pro",
    "1229": "nded",
    "1230": "no",
    "1231": "ingly",
    "1232": "haling",
    "1233": "ens",
    "1234": " run",
    "1235": " enough",
    "1236": " es",
    "1237": "ides",
    "1238": "ants",
    "1239": "Then",
    "1240": "It",
    "1241": " dou",
    "1242": "uri",
    "1243": "dden",
    "1244": " death",
    "1245": " dark",
    "1246": " brought",
    "1247": " Minerva",
    "1248": "pped",
    "1249": "mp",
    "1250": " swe",
    "1251": " sou",
    "1252": " pur",
    "1253": " gave",
    "1254": " cle",
    "1255": " ap",
    "1256": " Sperm",
    "1257": "akes",
    "1258": " sight",
    "1259": " mis",
    "1260": " hum",
    "1261": " does",
    "1262": "chi",
    "1263": "ains",
    "1264": "ached",
    "1265": " live",
    "1266": " having",
    "1267": " gold",
    "1268": " face",
    "1269": "ared",
    "1270": " fire",
    "1271": " bre",
    "1272": "hom",
    "1273": " war",
    "1274": " hear",
    "1275": " fast",
    "1276": " days",
    "1277": " boats",
    "1278": "lic",
    "1279": "ians",
    "1280": "ets",
    "1281": "cri",
    "1282": " stood",
    "1283": " imp",
    "1284": " cut",
    "1285": " better",
    "1286": "   ",
    "1287": "how",
    "1288": "ently",
    "1289": " island",
    "1290": " You",
    "1291": "ze",
    "1292": "ult",
    "1293": "ash",
    "1294": "aken",
    "1295": " mo",
    "1296": " always",
    "1297": "lled",
    "1298": "ific",
    "1299": "athan",
    "1300": "antucket",
    "1301": "St",
    "1302": " thee",
    "1303": " tw",
    "1304": " stri",
    "1305": " certain",
    "1306": "urther",
    "1307": "ual",
    "1308": "op",
    "1309": "ited",
    "1310": "from",
    "1311": "In",
    "1312": " times",
    "1313": " ind",
    "1314": " gone",
    "1315": " country",
    "1316": " board",
    "1317": " began",
    "1318": "viathan",
    "1319": "cing",
    "1320": " large",
    "1321": " hor",
    "1322": " cra",
    "1323": " arm",
    "1324": " God",
    "1325": "which",
    "1326": "ug",
    "1327": "ude",
    "1328": "lope",
    "1329": " spo",
    "1330": " nat",
    "1331": " mid",
    "1332": " indeed",
    "1333": " dro",
    "1334": "ked",
    "1335": "imes",
    "1336": "ards",
    "1337": " thy",
    "1338": " serv",
    "1339": " fish",
    "1340": "ken",
    "1341": "av",
    "1342": "_.",
    "1343": " whose",
    "1344": " reg",
    "1345": " kind",
    "1346": " eye",
    "1347": " don",
    "1348": "ring",
    "1349": "ime",
    "1350": "ances",
    "1351": " room",
    "1352": " others",
    "1353": " captain",
    "1354": " att",
    "1355": "ream",
    "1356": " ground",
    "1357": " gener",
    "1358": " drink",
    "1359": "mand",
    "1360": "con",
    "1361": " chan",
    "1362": "\u00e2\u0080\u009c\u00e2\u0080\u0098",
    "1363": "rown",
    "1364": "ones",
    "1365": "ising",
    "1366": "cul",
    "1367": " years",
    "1368": " wine",
    "1369": " voyage",
    "1370": " strange",
    "1371": " pers",
    "1372": " flo",
    "1373": "ster",
    "1374": "arted",
    "1375": " within",
    "1376": " else",
    "1377": " What",
    "1378": "have",
    "1379": " whom",
    "1380": " inf",
    "1381": " ele",
    "1382": " close",
    "1383": "reen",
    "1384": "over",
    "1385": "ince",
    "1386": "enelope",
    "1387": "bs",
    "1388": "..",
    "1389": " wild",
    "1390": " kill",
    "1391": " feel",
    "1392": "ured",
    "1393": "they",
    "1394": "rying",
    "1395": "ron",
    "1396": "ortal",
    "1397": "let",
    "1398": "come",
    "1399": " speak",
    "1400": " morning",
    "1401": " follow",
    "1402": " Whi",
    "1403": "them",
    "1404": "isher",
    "1405": "ines",
    "1406": "act",
    "1407": " stra",
    "1408": " shi",
    "1409": " Nantucket",
    "1410": "\r\n\r\n",
    "1411": "wor",
    "1412": "will",
    "1413": "ters",
    "1414": "stand",
    "1415": "cean",
    "1416": "amp",
    "1417": " word",
    "1418": " wife",
    "1419": " fine",
    "1420": "when",
    "1421": "nding",
    "1422": "any",
    "1423": "Ulysses",
    "1424": " new",
    "1425": " mean",
    "1426": " harpoone",
    "1427": " Ar",
    "1428": "uth",
    "1429": "my",
    "1430": "lask",
    "1431": "ined",
    "1432": "haca",
    "1433": "Now",
    "1434": " saying",
    "1435": " cop",
    "1436": " circ",
    "1437": " black",
    "1438": " Eury",
    "1439": "ump",
    "1440": "can",
    "1441": "ank",
    "1442": " whaling",
    "1443": " pray",
    "1444": " killed",
    "1445": " At",
    "1446": "und",
    "1447": "sts",
    "1448": "ived",
    "1449": "had",
    "1450": "ately",
    "1451": " town",
    "1452": " ins",
    "1453": " child",
    "1454": " creat",
    "1455": " bring",
    "1456": " because",
    "1457": "roy",
    "1458": "owed",
    "1459": "ider",
    "1460": "igh",
    "1461": "ier",
    "1462": "haps",
    "1463": "full",
    "1464": "As",
    "1465": " sperm",
    "1466": " sent",
    "1467": " jo",
    "1468": " happ",
    "1469": " doub",
    "1470": "sing",
    "1471": "ract",
    "1472": "ict",
    "1473": "eth",
    "1474": " mother",
    "1475": " form",
    "1476": " few",
    "1477": " four",
    "1478": " fin",
    "1479": "ously",
    "1480": "ities",
    "1481": "cond",
    "1482": "ades",
    "1483": " themselves",
    "1484": " fam",
    "1485": "tern",
    "1486": "rap",
    "1487": "orrow",
    "1488": "light",
    "1489": "hold",
    "1490": "ae",
    "1491": " stranger",
    "1492": " spoke",
    "1493": " poss",
    "1494": " iron",
    "1495": " blood",
    "1496": " Th",
    "1497": " K",
    "1498": "ughter",
    "1499": "ock",
    "1500": "lly",
    "1501": "do",
    "1502": "arn",
    "1503": " wood",
    "1504": " reason",
    "1505": " plain",
    "1506": " oil",
    "1507": " fair",
    "1508": " We",
    "1509": " Flask",
    "1510": "under",
    "1511": "rest",
    "1512": "lt",
    "1513": "ded",
    "1514": "clo",
    "1515": ",\u00e2\u0080\u0094",
    "1516": " together",
    "1517": " mark",
    "1518": " main",
    "1519": " itself",
    "1520": " given",
    "1521": " deep",
    "1522": " cor",
    "1523": " Penelope",
    "1524": "while",
    "1525": "uff",
    "1526": "sey",
    "1527": "ilt",
    "1528": "iar",
    "1529": ",\u00e2\u0080\u0099",
    "1530": " true",
    "1531": " tal",
    "1532": " sound",
    "1533": " pri",
    "1534": " call",
    "1535": " bus",
    "1536": "ages",
    "1537": " seems",
    "1538": " sign",
    "1539": " further",
    "1540": " dri",
    "1541": "old",
    "1542": "hind",
    "1543": "bin",
    "1544": " vis",
    "1545": " inv",
    "1546": " fle",
    "1547": "ott",
    "1548": "ose",
    "1549": "icular",
    "1550": "gy",
    "1551": " tou",
    "1552": " stay",
    "1553": " lea",
    "1554": " either",
    "1555": "mast",
    "1556": "lied",
    "1557": "dys",
    "1558": "ang",
    "1559": " seas",
    "1560": " ple",
    "1561": " Al",
    "1562": "\u00e2\u0080\u0094_",
    "1563": "wing",
    "1564": "who",
    "1565": "off",
    "1566": "low",
    "1567": "gin",
    "1568": " looking",
    "1569": " appe",
    "1570": " No",
    "1571": "unt",
    "1572": "ually",
    "1573": " tran",
    "1574": " taken",
    "1575": " sure",
    "1576": " length",
    "1577": " low",
    "1578": " instant",
    "1579": " ere",
    "1580": " door",
    "1581": " aff",
    "1582": " Mo",
    "1583": " Ithaca",
    "1584": "ler",
    "1585": " used",
    "1586": " spout",
    "1587": " quest",
    "1588": " leg",
    "1589": " known",
    "1590": " kept",
    "1591": " care",
    "1592": "wise",
    "1593": "ile",
    "1594": "fter",
    "1595": "bed",
    "1596": "What",
    "1597": " sudden",
    "1598": " strong",
    "1599": " help",
    "1600": " comes",
    "1601": "ming",
    "1602": "lie",
    "1603": "dle",
    "1604": "az",
    "1605": " top",
    "1606": " need",
    "1607": " fr",
    "1608": " eat",
    "1609": " She",
    "1610": " Now",
    "1611": "When",
    "1612": "HE",
    "1613": " vo",
    "1614": " int",
    "1615": " act",
    "1616": "xt",
    "1617": "une",
    "1618": "theless",
    "1619": "onah",
    "1620": "eneath",
    "1621": "ense",
    "1622": "cked",
    "1623": "count",
    "1624": "aeus",
    "1625": " yourself",
    "1626": " turned",
    "1627": " looked",
    "1628": " fear",
    "1629": "ural",
    "1630": "pping",
    "1631": "ield",
    "1632": "ided",
    "1633": "icked",
    "1634": "ically",
    "1635": "ents",
    "1636": "cla",
    "1637": "attle",
    "1638": "ane",
    "1639": " tri",
    "1640": " soul",
    "1641": " mouth",
    "1642": " earth",
    "1643": " dire",
    "1644": " city",
    "1645": "some",
    "1646": "fully",
    "1647": " ves",
    "1648": " char",
    "1649": " ill",
    "1650": "\r\n\r\n ",
    "1651": "vers",
    "1652": "uring",
    "1653": " women",
    "1654": " why",
    "1655": " vessel",
    "1656": " sec",
    "1657": " ref",
    "1658": " mount",
    "1659": " jaw",
    "1660": " inc",
    "1661": " fellow",
    "1662": " White",
    "1663": "\u00e2\u0080\u0094\u00e2\u0080\u009c",
    "1664": "iously",
    "1665": "fort",
    "1666": " standing",
    "1667": " sav",
    "1668": " rather",
    "1669": " case",
    "1670": " Le",
    "1671": "their",
    "1672": "see",
    "1673": "rouble",
    "1674": "ready",
    "1675": "ixed",
    "1676": "ean",
    "1677": "clud",
    "1678": "ater",
    "1679": "aut",
    "1680": "There",
    "1681": " tre",
    "1682": " straight",
    "1683": " sometimes",
    "1684": " port",
    "1685": " making",
    "1686": " fisher",
    "1687": " contin",
    "1688": " conc",
    "1689": " coming",
    "1690": "spe",
    "1691": "orm",
    "1692": "itude",
    "1693": "culiar",
    "1694": "Thus",
    "1695": "OO",
    "1696": "?\u00e2\u0080\u0094",
    "1697": " suff",
    "1698": " story",
    "1699": " sn",
    "1700": " entire",
    "1701": " behind",
    "1702": " Pele",
    "1703": " Nor",
    "1704": " Dick",
    "1705": " \u00e2\u0080\u0094_",
    "1706": "more",
    "1707": "lve",
    "1708": "ized",
    "1709": "iffe",
    "1710": " use",
    "1711": " table",
    "1712": " reached",
    "1713": " person",
    "1714": " often",
    "1715": " living",
    "1716": " laid",
    "1717": " knew",
    "1718": " imm",
    "1719": " forth",
    "1720": " daughter",
    "1721": " adv",
    "1722": " Jonah",
    "1723": "urious",
    "1724": "umber",
    "1725": "then",
    "1726": "pr",
    "1727": "ours",
    "1728": "lish",
    "1729": "cal",
    "1730": "My",
    "1731": " tail",
    "1732": " show",
    "1733": " rece",
    "1734": " ac",
    "1735": " \u00e2\u0080\u0099",
    "1736": "umaeus",
    "1737": "ser",
    "1738": "sail",
    "1739": "itting",
    "1740": "ildad",
    "1741": " words",
    "1742": " woman",
    "1743": " short",
    "1744": " since",
    "1745": " proper",
    "1746": " perhaps",
    "1747": " occ",
    "1748": " hope",
    "1749": " beneath",
    "1750": "wer",
    "1751": "rent",
    "1752": "laus",
    "1753": "band",
    "1754": "),",
    "1755": " waters",
    "1756": " thir",
    "1757": " squ",
    "1758": " quite",
    "1759": " oars",
    "1760": " least",
    "1761": " chief",
    "1762": " cr",
    "1763": " Do",
    "1764": "were",
    "1765": "ments",
    "1766": "ift",
    "1767": "iff",
    "1768": "ident",
    "1769": "iet",
    "1770": "came",
    "1771": " works",
    "1772": " thick",
    "1773": " send",
    "1774": " seat",
    "1775": " ham",
    "1776": " comple",
    "1777": " bit",
    "1778": "\r\n   ",
    "1779": "would",
    "1780": "though",
    "1781": "ribut",
    "1782": "pre",
    "1783": "kes",
    "1784": "ives",
    "1785": "hand",
    "1786": "00",
    "1787": " stre",
    "1788": " means",
    "1789": " mer",
    "1790": " maid",
    "1791": " lost",
    "1792": " harpoon",
    "1793": " fight",
    "1794": " cur",
    "1795": " anything",
    "1796": " Moby",
    "1797": "race",
    "1798": "ousand",
    "1799": "aying",
    "1800": "aining",
    "1801": " law",
    "1802": " king",
    "1803": " held",
    "1804": " foot",
    "1805": " coun",
    "1806": " alone",
    "1807": " Ind",
    "1808": "your",
    "1809": "tering",
    "1810": "sha",
    "1811": "ottom",
    "1812": "ond",
    "1813": "entle",
    "1814": "dis",
    "1815": " noble",
    "1816": " less",
    "1817": " hat",
    "1818": " consider",
    "1819": " bar",
    "1820": " above",
    "1821": " Eng",
    "1822": "ries",
    "1823": "rous",
    "1824": "oc",
    "1825": "eac",
    "1826": "OOK",
    "1827": " vast",
    "1828": " trouble",
    "1829": " supp",
    "1830": " second",
    "1831": " sus",
    "1832": " ser",
    "1833": " prov",
    "1834": " la",
    "1835": " hur",
    "1836": " cook",
    "1837": " bu",
    "1838": " bes",
    "1839": " art",
    "1840": " Oh",
    "1841": " Ant",
    "1842": "tered",
    "1843": "jo",
    "1844": "iss",
    "1845": "into",
    "1846": "ia",
    "1847": "day",
    "1848": "ceed",
    "1849": "ative",
    "1850": "asure",
    "1851": " wonder",
    "1852": " wr",
    "1853": " try",
    "1854": " sheep",
    "1855": " ocean",
    "1856": " lad",
    "1857": " hus",
    "1858": " ext",
    "1859": " cabin",
    "1860": " business",
    "1861": " bur",
    "1862": " 2",
    "1863": "ping",
    "1864": "phe",
    "1865": "ots",
    "1866": "house",
    "1867": "cle",
    "1868": "about",
    "1869": "On",
    "1870": " waves",
    "1871": " taking",
    "1872": " sim",
    "1873": " ready",
    "1874": " quick",
    "1875": " quar",
    "1876": " gu",
    "1877": " emb",
    "1878": " course",
    "1879": " ass",
    "1880": " To",
    "1881": " Peleg",
    "1882": " Pha",
    "1883": "thou",
    "1884": "reek",
    "1885": "rem",
    "1886": "look",
    "1887": "ius",
    "1888": "herd",
    "1889": "dyssey",
    "1890": "cess",
    "1891": "Telemachus",
    "1892": "OR",
    "1893": " val",
    "1894": " prof",
    "1895": " leave",
    "1896": " esca",
    "1897": " dear",
    "1898": " conf",
    "1899": " bul",
    "1900": " On",
    "1901": " (_",
    "1902": "stance",
    "1903": "sc",
    "1904": "oly",
    "1905": "oke",
    "1906": "kn",
    "1907": "inner",
    "1908": "iew",
    "1909": "iding",
    "1910": "gged",
    "1911": "enelaus",
    "1912": "ctly",
    "1913": " writ",
    "1914": " ta",
    "1915": " pres",
    "1916": " order",
    "1917": " mate",
    "1918": " mag",
    "1919": " inside",
    "1920": " free",
    "1921": " fly",
    "1922": " exp",
    "1923": " devil",
    "1924": " command",
    "1925": " col",
    "1926": " cross",
    "1927": " cent",
    "1928": " break",
    "1929": " Troy",
    "1930": " Pip",
    "1931": " Bildad",
    "1932": "welve",
    "1933": "umb",
    "1934": "she",
    "1935": "rence",
    "1936": "pent",
    "1937": "ool",
    "1938": "cinous",
    "1939": ";\u00e2\u0080\u0094",
    "1940": " si",
    "1941": " peculiar",
    "1942": " pie",
    "1943": " op",
    "1944": " master",
    "1945": " inte",
    "1946": " goes",
    "1947": " grow",
    "1948": " friends",
    "1949": " eas",
    "1950": " caught",
    "1951": " already",
    "1952": "par",
    "1953": "inted",
    "1954": "ibly",
    "1955": "ired",
    "1956": "ike",
    "1957": "chan",
    "1958": "aning",
    "1959": " wall",
    "1960": " prec",
    "1961": " particular",
    "1962": " heav",
    "1963": " fact",
    "1964": " copy",
    "1965": " beaut",
    "1966": "ressed",
    "1967": "night",
    "1968": "lence",
    "1969": "isted",
    "1970": "hant",
    "1971": "ention",
    "1972": "cially",
    "1973": "che",
    "1974": "antic",
    "1975": "Th",
    "1976": " swim",
    "1977": " pit",
    "1978": " met",
    "1979": " mad",
    "1980": " harpooneer",
    "1981": " bound",
    "1982": " bones",
    "1983": " bad",
    "1984": " account",
    "1985": " Leviathan",
    "1986": "upon",
    "1987": "pos",
    "1988": "os",
    "1989": "loft",
    "1990": "ivory",
    "1991": "eping",
    "1992": "ement",
    "1993": "cept",
    "1994": " six",
    "1995": " respect",
    "1996": " red",
    "1997": " reach",
    "1998": " prev",
    "1999": " plan",
    "2000": " book",
    "2001": " bread",
    "2002": " bottom",
    "2003": " See",
    "2004": " How",
    "2005": "ste",
    "2006": "line",
    "2007": "itted",
    "2008": "enty",
    "2009": "emed",
    "2010": "eans",
    "2011": "ding",
    "2012": "dess",
    "2013": "board",
    "2014": "This",
    "2015": "ES",
    "2016": " whalemen",
    "2017": " wide",
    "2018": " shore",
    "2019": " roll",
    "2020": " ran",
    "2021": " par",
    "2022": " pa",
    "2023": " mist",
    "2024": " Mr",
    "2025": " Here",
    "2026": "ptune",
    "2027": "get",
    "2028": "eptune",
    "2029": "chaeans",
    "2030": "after",
    "2031": " voice",
    "2032": " sword",
    "2033": " sit",
    "2034": " ord",
    "2035": " heads",
    "2036": " hon",
    "2037": " getting",
    "2038": " gir",
    "2039": " gho",
    "2040": " clot",
    "2041": " carried",
    "2042": " cas",
    "2043": " begin",
    "2044": " That",
    "2045": " Eumaeus",
    "2046": " Be",
    "2047": "vered",
    "2048": "ned",
    "2049": "ister",
    "2050": "face",
    "2051": ".\u00e2\u0080\u0094",
    "2052": " und",
    "2053": " super",
    "2054": " single",
    "2055": " seam",
    "2056": " savage",
    "2057": " sy",
    "2058": " rock",
    "2059": " mere",
    "2060": " makes",
    "2061": " love",
    "2062": " general",
    "2063": " forward",
    "2064": " everything",
    "2065": " dep",
    "2066": " drew",
    "2067": " bir",
    "2068": " ve",
    "2069": "val",
    "2070": "ronic",
    "2071": "ndred",
    "2072": "lit",
    "2073": "ii",
    "2074": "gr",
    "2075": "cons",
    "2076": "ays",
    "2077": "atch",
    "2078": "ality",
    "2079": "aven",
    "2080": "So",
    "2081": " ten",
    "2082": " supper",
    "2083": " mur",
    "2084": " lie",
    "2085": " lower",
    "2086": " husband",
    "2087": " hundred",
    "2088": " gentle",
    "2089": " fat",
    "2090": " doubt",
    "2091": " bows",
    "2092": " aw",
    "2093": " Phaeac",
    "2094": " King",
    "2095": "ute",
    "2096": "reg",
    "2097": "oured",
    "2098": "oman",
    "2099": "ineherd",
    "2100": "ils",
    "2101": "iling",
    "2102": "heads",
    "2103": "down",
    "2104": "cient",
    "2105": "bour",
    "2106": "ased",
    "2107": "alt",
    "2108": "again",
    "2109": " twelve",
    "2110": " suppose",
    "2111": " struck",
    "2112": " sons",
    "2113": " passed",
    "2114": " min",
    "2115": " gro",
    "2116": " green",
    "2117": " div",
    "2118": " clear",
    "2119": " ang",
    "2120": "\r\n    ",
    "2121": "rist",
    "2122": "ior",
    "2123": "gging",
    "2124": "cted",
    "2125": "cast",
    "2126": "Aye",
    "2127": " trans",
    "2128": " sweet",
    "2129": " stern",
    "2130": " start",
    "2131": " sailed",
    "2132": " replied",
    "2133": " que",
    "2134": " pull",
    "2135": " ori",
    "2136": " mighty",
    "2137": " det",
    "2138": " common",
    "2139": " circum",
    "2140": " cho",
    "2141": " ask",
    "2142": " An",
    "2143": "posed",
    "2144": "pit",
    "2145": "oud",
    "2146": "much",
    "2147": "io",
    "2148": "ashed",
    "2149": " thousand",
    "2150": " servants",
    "2151": " leaving",
    "2152": " hunt",
    "2153": " front",
    "2154": " fan",
    "2155": " craft",
    "2156": " arms",
    "2157": " La",
    "2158": " His",
    "2159": " Ch",
    "2160": "well",
    "2161": "unning",
    "2162": "tego",
    "2163": "irm",
    "2164": "ires",
    "2165": "cont",
    "2166": "boat",
    "2167": "ashtego",
    "2168": "ancing",
    "2169": " threw",
    "2170": " soft",
    "2171": " slow",
    "2172": " sil",
    "2173": " goddess",
    "2174": " equ",
    "2175": " di",
    "2176": " cry",
    "2177": " aye",
    "2178": " Let",
    "2179": "stern",
    "2180": "penter",
    "2181": "pes",
    "2182": "gest",
    "2183": "ctronic",
    "2184": "aff",
    "2185": " year",
    "2186": " truth",
    "2187": " tem",
    "2188": " sum",
    "2189": " says",
    "2190": " sorrow",
    "2191": " ru",
    "2192": " court",
    "2193": " cloak",
    "2194": " calm",
    "2195": " cast",
    "2196": " broad",
    "2197": " brave",
    "2198": " De",
    "2199": "veral",
    "2200": "rows",
    "2201": "rust",
    "2202": "pecially",
    "2203": "otion",
    "2204": "meric",
    "2205": "iter",
    "2206": "br",
    "2207": "Ca",
    "2208": " wond",
    "2209": " wal",
    "2210": " view",
    "2211": " terms",
    "2212": " shir",
    "2213": " question",
    "2214": " origin",
    "2215": " next",
    "2216": " middle",
    "2217": " manner",
    "2218": " mortal",
    "2219": " longer",
    "2220": " lim",
    "2221": " die",
    "2222": " curious",
    "2223": " breat",
    "2224": " bra",
    "2225": " alive",
    "2226": " English",
    "2227": " ver",
    "2228": "str",
    "2229": "ssed",
    "2230": "owing",
    "2231": "ma",
    "2232": "inct",
    "2233": "des",
    "2234": "could",
    "2235": " writer",
    "2236": " turning",
    "2237": " sails",
    "2238": " raised",
    "2239": " prom",
    "2240": " neither",
    "2241": " number",
    "2242": " none",
    "2243": " meet",
    "2244": " lying",
    "2245": " grand",
    "2246": " glo",
    "2247": " dest",
    "2248": " dinner",
    "2249": " add",
    "2250": " aloft",
    "2251": " THE",
    "2252": " Py",
    "2253": " Not",
    "2254": " Indian",
    "2255": " Alcinous",
    "2256": " Achaeans",
    "2257": " ivory",
    "2258": " 3",
    "2259": "ush",
    "2260": "used",
    "2261": "uly",
    "2262": "rible",
    "2263": "pend",
    "2264": "pla",
    "2265": "ored",
    "2266": "ient",
    "2267": "god",
    "2268": "even",
    "2269": "chant",
    "2270": "before",
    "2271": "IS",
    "2272": " whatever",
    "2273": " twenty",
    "2274": " spear",
    "2275": " rope",
    "2276": " rec",
    "2277": " passage",
    "2278": " outer",
    "2279": " mass",
    "2280": " fif",
    "2281": " excel",
    "2282": " cou",
    "2283": " broken",
    "2284": " ble",
    "2285": " New",
    "2286": " Menelaus",
    "2287": " ut",
    "2288": "vest",
    "2289": "vel",
    "2290": "ushed",
    "2291": "through",
    "2292": "oundation",
    "2293": "last",
    "2294": "hore",
    "2295": "hel",
    "2296": "erc",
    "2297": "cies",
    "2298": "IL",
    "2299": "Ahab",
    "2300": " whereon",
    "2301": " wish",
    "2302": " talk",
    "2303": " spir",
    "2304": " monster",
    "2305": " mine",
    "2306": " lead",
    "2307": " lines",
    "2308": " glad",
    "2309": " except",
    "2310": " complete",
    "2311": " coast",
    "2312": " chase",
    "2313": " ch",
    "2314": " below",
    "2315": " adm",
    "2316": " abs",
    "2317": " Se",
    "2318": "zz",
    "2319": "uous",
    "2320": "time",
    "2321": "stant",
    "2322": "set",
    "2323": "sea",
    "2324": "sm",
    "2325": "ric",
    "2326": "rat",
    "2327": "poss",
    "2328": "oney",
    "2329": "ists",
    "2330": "ifferent",
    "2331": "ices",
    "2332": "ipe",
    "2333": "iles",
    "2334": "els",
    "2335": "eding",
    "2336": "eanwhile",
    "2337": "ear",
    "2338": "arks",
    "2339": "ames",
    "2340": "aged",
    "2341": "You",
    "2342": "Qu",
    "2343": "ND",
    "2344": " watch",
    "2345": " sailors",
    "2346": " ret",
    "2347": " parts",
    "2348": " power",
    "2349": " object",
    "2350": " magn",
    "2351": " grie",
    "2352": " flu",
    "2353": " fro",
    "2354": " ev",
    "2355": " em",
    "2356": " draw",
    "2357": " disc",
    "2358": " dream",
    "2359": " cave",
    "2360": " blue",
    "2361": " bear",
    "2362": " Sp",
    "2363": " Right",
    "2364": " Phaeacians",
    "2365": " Neptune",
    "2366": " By",
    "2367": "together",
    "2368": "ti",
    "2369": "sy",
    "2370": "rim",
    "2371": "resh",
    "2372": "ney",
    "2373": "non",
    "2374": "medi",
    "2375": "lieve",
    "2376": "ises",
    "2377": "inter",
    "2378": "gn",
    "2379": "fl",
    "2380": "ening",
    "2381": "ected",
    "2382": "comp",
    "2383": "claim",
    "2384": "body",
    "2385": "asted",
    "2386": "_,",
    "2387": "Oh",
    "2388": " understand",
    "2389": " throw",
    "2390": " skin",
    "2391": " purpose",
    "2392": " presents",
    "2393": " meat",
    "2394": " Per",
    "2395": " Is",
    "2396": "unk",
    "2397": "uel",
    "2398": "tr",
    "2399": "still",
    "2400": "ses",
    "2401": "oard",
    "2402": "mn",
    "2403": "los",
    "2404": "iting",
    "2405": "ified",
    "2406": "hered",
    "2407": "great",
    "2408": "erning",
    "2409": "every",
    "2410": "No",
    "2411": "II",
    "2412": " var",
    "2413": " swineherd",
    "2414": " stead",
    "2415": " sharp",
    "2416": " seeing",
    "2417": " running",
    "2418": " received",
    "2419": " quarter",
    "2420": " placed",
    "2421": " maids",
    "2422": " helm",
    "2423": " heavy",
    "2424": " fall",
    "2425": " eff",
    "2426": " chance",
    "2427": " burn",
    "2428": " Tashtego",
    "2429": " All",
    "2430": " ide",
    "2431": " 4",
    "2432": "wind",
    "2433": "thy",
    "2434": "que",
    "2435": "orses",
    "2436": "mat",
    "2437": "lessly",
    "2438": "ertes",
    "2439": "airs",
    "2440": "aint",
    "2441": "_)",
    "2442": "With",
    "2443": "?\u00e2\u0080\u0099",
    "2444": "....",
    "2445": " unt",
    "2446": " tra",
    "2447": " sky",
    "2448": " list",
    "2449": " gre",
    "2450": " flew",
    "2451": " fishery",
    "2452": " five",
    "2453": " filled",
    "2454": " fier",
    "2455": " clothes",
    "2456": " clean",
    "2457": " boy",
    "2458": " Un",
    "2459": " Foundation",
    "2460": " ed",
    "2461": "than",
    "2462": "pid",
    "2463": "ively",
    "2464": "irce",
    "2465": "evertheless",
    "2466": "ellow",
    "2467": "car",
    "2468": "appe",
    "2469": "ager",
    "2470": "Odyssey",
    "2471": "Greek",
    "2472": "At",
    "2473": " wake",
    "2474": " teeth",
    "2475": " treat",
    "2476": " swift",
    "2477": " step",
    "2478": " sole",
    "2479": " sharks",
    "2480": " several",
    "2481": " sailor",
    "2482": " safe",
    "2483": " really",
    "2484": " pursu",
    "2485": " prod",
    "2486": " prot",
    "2487": " ma",
    "2488": " hardly",
    "2489": " hair",
    "2490": " giving",
    "2491": " felt",
    "2492": " doing",
    "2493": " def",
    "2494": " dam",
    "2495": " blind",
    "2496": " become",
    "2497": "ray",
    "2498": "ote",
    "2499": "oms",
    "2500": "olo",
    "2501": "lyp",
    "2502": "clea",
    "2503": "cial",
    "2504": "chief",
    "2505": "back",
    "2506": " wicked",
    "2507": " tall",
    "2508": " strength",
    "2509": " sad",
    "2510": " places",
    "2511": " mut",
    "2512": " lives",
    "2513": " human",
    "2514": " hung",
    "2515": " famous",
    "2516": " escape",
    "2517": " especially",
    "2518": " darkness",
    "2519": " cond",
    "2520": " coff",
    "2521": " carry",
    "2522": " Antinous",
    "2523": " 5",
    "2524": "\u00ce\u00bf",
    "2525": "yed",
    "2526": "water",
    "2527": "ued",
    "2528": "top",
    "2529": "tend",
    "2530": "should",
    "2531": "sw",
    "2532": "rs",
    "2533": "pri",
    "2534": "ob",
    "2535": "ivid",
    "2536": "iful",
    "2537": "gl",
    "2538": "fast",
    "2539": "ead",
    "2540": "arent",
    "2541": "aked",
    "2542": "LE",
    "2543": "BOOK",
    "2544": " trave",
    "2545": " slowly",
    "2546": " silver",
    "2547": " servant",
    "2548": " rose",
    "2549": " rolled",
    "2550": " past",
    "2551": " offic",
    "2552": " natural",
    "2553": " marin",
    "2554": " lee",
    "2555": " learn",
    "2556": " huge",
    "2557": " horiz",
    "2558": " hither",
    "2559": " harpooneers",
    "2560": " gue",
    "2561": " followed",
    "2562": " eight",
    "2563": " dart",
    "2564": " creature",
    "2565": " answer",
    "2566": " around",
    "2567": " Americ",
    "2568": " x",
    "2569": "ths",
    "2570": "tell",
    "2571": "sol",
    "2572": "ranger",
    "2573": "oned",
    "2574": "gers",
    "2575": "eds",
    "2576": "deck",
    "2577": "castle",
    "2578": " whaleman",
    "2579": " upper",
    "2580": " suddenly",
    "2581": " shout",
    "2582": " sacri",
    "2583": " remem",
    "2584": " quiet",
    "2585": " peace",
    "2586": " pal",
    "2587": " obser",
    "2588": " mild",
    "2589": " hearts",
    "2590": " hun",
    "2591": " fool",
    "2592": " fre",
    "2593": " fet",
    "2594": " excellent",
    "2595": " est",
    "2596": " dec",
    "2597": " crow",
    "2598": " born",
    "2599": " bod",
    "2600": " Yet",
    "2601": " Pylos",
    "2602": " 18",
    "2603": "\r\n       ",
    "2604": "uct",
    "2605": "teel",
    "2606": "spit",
    "2607": "semb",
    "2608": "rif",
    "2609": "ror",
    "2610": "ording",
    "2611": "may",
    "2612": "llo",
    "2613": "known",
    "2614": "form",
    "2615": "dra",
    "2616": "cluded",
    "2617": "asion",
    "2618": "ament",
    "2619": "They",
    "2620": "EN",
    "2621": " vain",
    "2622": " touching",
    "2623": " third",
    "2624": " sto",
    "2625": " sacrif",
    "2626": " ske",
    "2627": " regard",
    "2628": " pig",
    "2629": " nevertheless",
    "2630": " mil",
    "2631": " lance",
    "2632": " hang",
    "2633": " horses",
    "2634": " golden",
    "2635": " fresh",
    "2636": " distance",
    "2637": " cold",
    "2638": " brow",
    "2639": " bless",
    "2640": " agre",
    "2641": " Lord",
    "2642": "yond",
    "2643": "udes",
    "2644": "ubber",
    "2645": "thought",
    "2646": "teelk",
    "2647": "teelkilt",
    "2648": "stri",
    "2649": "shall",
    "2650": "somet",
    "2651": "pic",
    "2652": "nat",
    "2653": "must",
    "2654": "live",
    "2655": "inary",
    "2656": "harpo",
    "2657": "gam",
    "2658": "estor",
    "2659": "ery",
    "2660": "ection",
    "2661": "don",
    "2662": "bu",
    "2663": "arr",
    "2664": "acle",
    "2665": "app",
    "2666": "Whale",
    "2667": " unless",
    "2668": " thinking",
    "2669": " tor",
    "2670": " slight",
    "2671": " shirt",
    "2672": " rocks",
    "2673": " plainly",
    "2674": " play",
    "2675": " pub",
    "2676": " offer",
    "2677": " nigh",
    "2678": " mod",
    "2679": " lord",
    "2680": " immortal",
    "2681": " horse",
    "2682": " hide",
    "2683": " firm",
    "2684": " fig",
    "2685": " exact",
    "2686": " electronic",
    "2687": " easy",
    "2688": " eating",
    "2689": " distribut",
    "2690": " appro",
    "2691": " ago",
    "2692": " accom",
    "2693": " age",
    "2694": " able",
    "2695": " With",
    "2696": " Laertes",
    "2697": "these",
    "2698": "rench",
    "2699": "liad",
    "2700": "ize",
    "2701": "iving",
    "2702": "hether",
    "2703": "hal",
    "2704": "empt",
    "2705": "emnon",
    "2706": "ctions",
    "2707": "cher",
    "2708": "been",
    "2709": "We",
    "2710": "Captain",
    "2711": " warm",
    "2712": " turns",
    "2713": " thunder",
    "2714": " requ",
    "2715": " prob",
    "2716": " pul",
    "2717": " nearly",
    "2718": " mus",
    "2719": " lies",
    "2720": " leviathan",
    "2721": " led",
    "2722": " knows",
    "2723": " herself",
    "2724": " hours",
    "2725": " hour",
    "2726": " furn",
    "2727": " fixed",
    "2728": " fit",
    "2729": " during",
    "2730": " comr",
    "2731": " children",
    "2732": " chap",
    "2733": " belong",
    "2734": " believe",
    "2735": " bone",
    "2736": " ashore",
    "2737": " My",
    "2738": " Circe",
    "2739": " id",
    "2740": "warks",
    "2741": "ularly",
    "2742": "such",
    "2743": "reenland",
    "2744": "port",
    "2745": "oked",
    "2746": "ley",
    "2747": "itten",
    "2748": "ility",
    "2749": "gamemnon",
    "2750": "fo",
    "2751": "fish",
    "2752": "end",
    "2753": "ees",
    "2754": "did",
    "2755": "cking",
    "2756": "bre",
    "2757": "bow",
    "2758": "bet",
    "2759": "ashing",
    "2760": "arily",
    "2761": "For",
    "2762": "Al",
    "2763": " wash",
    "2764": " state",
    "2765": " spite",
    "2766": " smoke",
    "2767": " silent",
    "2768": " shad",
    "2769": " separ",
    "2770": " snow",
    "2771": " sitting",
    "2772": " reve",
    "2773": " presently",
    "2774": " pay",
    "2775": " ox",
    "2776": " mates",
    "2777": " leap",
    "2778": " lif",
    "2779": " lat",
    "2780": " idea",
    "2781": " hen",
    "2782": " heed",
    "2783": " ghost",
    "2784": " feast",
    "2785": " enc",
    "2786": " dr",
    "2787": " conce",
    "2788": " covered",
    "2789": " carpenter",
    "2790": " capt",
    "2791": " bearing",
    "2792": " Where",
    "2793": " Don",
    "2794": "venge",
    "2795": "umed",
    "2796": "ulous",
    "2797": "two",
    "2798": "sequ",
    "2799": "sur",
    "2800": "pass",
    "2801": "ounded",
    "2802": "mod",
    "2803": "mo",
    "2804": "kind",
    "2805": "ison",
    "2806": "ience",
    "2807": "horess",
    "2808": "has",
    "2809": "esides",
    "2810": "erable",
    "2811": "athered",
    "2812": "aded",
    "2813": "US",
    "2814": "Book",
    "2815": " weather",
    "2816": " various",
    "2817": " trying",
    "2818": " stro",
    "2819": " seamen",
    "2820": " sailing",
    "2821": " sla",
    "2822": " queer",
    "2823": " possible",
    "2824": " pain",
    "2825": " mountain",
    "2826": " legs",
    "2827": " late",
    "2828": " hit",
    "2829": " gun",
    "2830": " eng",
    "2831": " evil",
    "2832": " ears",
    "2833": " dread",
    "2834": " dim",
    "2835": " darted",
    "2836": " dan",
    "2837": " cutting",
    "2838": " concerning",
    "2839": " cup",
    "2840": " cru",
    "2841": " ce",
    "2842": " burst",
    "2843": " beginning",
    "2844": " battle",
    "2845": " angry",
    "2846": " OF",
    "2847": "yclo",
    "2848": "ume",
    "2849": "ugh",
    "2850": "ues",
    "2851": "rupt",
    "2852": "mis",
    "2853": "ky",
    "2854": "izing",
    "2855": "itudes",
    "2856": "itions",
    "2857": "irt",
    "2858": "iod",
    "2859": "hs",
    "2860": "good",
    "2861": "ech",
    "2862": "cluding",
    "2863": "cious",
    "2864": "certain",
    "2865": "ator",
    "2866": "acific",
    "2867": "aced",
    "2868": "Sir",
    "2869": "IT",
    "2870": "AC",
    "2871": " wondrous",
    "2872": " truly",
    "2873": " somehow",
    "2874": " scar",
    "2875": " remained",
    "2876": " remain",
    "2877": " news",
    "2878": " joy",
    "2879": " hamm",
    "2880": " fill",
    "2881": " den",
    "2882": " company",
    "2883": " chest",
    "2884": " cap",
    "2885": " cattle",
    "2886": " bold",
    "2887": " bore",
    "2888": " barb",
    "2889": " asked",
    "2890": " Who",
    "2891": " Some",
    "2892": "uthoress",
    "2893": "take",
    "2894": "stone",
    "2895": "room",
    "2896": "plain",
    "2897": "present",
    "2898": "phant",
    "2899": "part",
    "2900": "mates",
    "2901": "lypso",
    "2902": "leton",
    "2903": "lord",
    "2904": "lin",
    "2905": "iment",
    "2906": "ground",
    "2907": "eper",
    "2908": "anted",
    "2909": "acious",
    "2910": "Whi",
    "2911": "Look",
    "2912": "How",
    "2913": " winds",
    "2914": " wre",
    "2915": " won",
    "2916": " vio",
    "2917": " trad",
    "2918": " takes",
    "2919": " substance",
    "2920": " roy",
    "2921": " rich",
    "2922": " property",
    "2923": " precise",
    "2924": " piece",
    "2925": " pat",
    "2926": " lands",
    "2927": " hospit",
    "2928": " hig",
    "2929": " hull",
    "2930": " following",
    "2931": " fifty",
    "2932": " fal",
    "2933": " drawing",
    "2934": " cloister",
    "2935": " brain",
    "2936": " blow",
    "2937": " bitter",
    "2938": " beyond",
    "2939": " beat",
    "2940": " bid",
    "2941": " aspect",
    "2942": " Why",
    "2943": " Tell",
    "2944": " Euryclea",
    "2945": " Can",
    "2946": " Aeg",
    "2947": " X",
    "2948": "\r\n\r\n\r\n\r\n\r",
    "2949": "\u00e2\u0084",
    "2950": "\u00e2\u0084\u00a2",
    "2951": "\u00ce\u00bd",
    "2952": "wood",
    "2953": "vering",
    "2954": "vals",
    "2955": "uttle",
    "2956": "utch",
    "2957": "urely",
    "2958": "thi",
    "2959": "stances",
    "2960": "retched",
    "2961": "raid",
    "2962": "rage",
    "2963": "por",
    "2964": "owards",
    "2965": "og",
    "2966": "ny",
    "2967": "nib",
    "2968": "lest",
    "2969": "leep",
    "2970": "lation",
    "2971": "ien",
    "2972": "himself",
    "2973": "happ",
    "2974": "gypt",
    "2975": "goo",
    "2976": "ety",
    "2977": "ession",
    "2978": "erm",
    "2979": "claimed",
    "2980": "cried",
    "2981": "bled",
    "2982": "being",
    "2983": "bus",
    "2984": "arrow",
    "2985": "aggoo",
    "2986": "AN",
    "2987": ":\u00e2\u0080\u0094",
    "2988": " vol",
    "2989": " surface",
    "2990": " string",
    "2991": " stream",
    "2992": " speaking",
    "2993": " shoulders",
    "2994": " save",
    "2995": " proceed",
    "2996": " nose",
    "2997": " nature",
    "2998": "<pad>",
    "2999": "<unk>"
  },
  "merges": [
    [
      " ",
      "t"
    ],
    [
      "h",
      "e"
    ],
    [
      " ",
      "a"
    ],
    [
      "i",
      "n"
    ],
    [
      " t",
      "he"
    ],
    [
      " ",
      "s"
    ],
    [
      " ",
      "w"
    ],
    [
      " ",
      "o"
    ],
    [
      "r",
      "e"
    ],
    [
      "n",
      "d"
    ],
    [
      "h",
      "a"
    ],
    [
      "o",
      "u"
    ],
    [
      "e",
      "r"
    ],
    [
      " ",
      "b"
    ],
    [
      "h",
      "i"
    ],
    [
      " ",
      "m"
    ],
    [
      "in",
      "g"
    ],
    [
      "l",
      "e"
    ],
    [
      " ",
      "f"
    ],
    [
      "i",
      "t"
    ],
    [
      "\u00e2",
      "\u0080"
    ],
    [
      " a",
      "nd"
    ],
    [
      " o",
      "f"
    ],
    [
      " ",
      "c"
    ],
    [
      "e",
      "d"
    ],
    [
      "e",
      "n"
    ],
    [
      "o",
      "n"
    ],
    [
      "o",
      "r"
    ],
    [
      " t",
      "o"
    ],
    [
      "l",
      "l"
    ],
    [
      "s",
      "t"
    ],
    [
      " ",
      "in"
    ],
    [
      "a",
      "r"
    ],
    [
      "a",
      "n"
    ],
    [
      " ",
      "d"
    ],
    [
      "a",
      "t"
    ],
    [
      "e",
      "s"
    ],
    [
      " ",
      "p"
    ],
    [
      " ",
      "he"
    ],
    [
      "o",
      "m"
    ],
    [
      " ",
      "hi"
    ],
    [
      " ",
      "n"
    ],
    [
      "i",
      "s"
    ],
    [
      " ",
      "ha"
    ],
    [
      " ",
      "l"
    ],
    [
      "ha",
      "t"
    ],
    [
      "o",
      "w"
    ],
    [
      " ",
      "g"
    ],
    [
      "u",
      "t"
    ],
    [
      "a",
      "s"
    ],
    [
      "\r",
      "\n"
    ],
    [
      "l",
      "y"
    ],
    [
      " ",
      "y"
    ],
    [
      " ",
      "I"
    ],
    [
      "s",
      "e"
    ],
    [
      " b",
      "e"
    ],
    [
      "o",
      "t"
    ],
    [
      "v",
      "e"
    ],
    [
      "l",
      "d"
    ],
    [
      "g",
      "h"
    ],
    [
      "\r\n",
      "\r"
    ],
    [
      " ",
      "e"
    ],
    [
      " t",
      "hat"
    ],
    [
      " o",
      "n"
    ],
    [
      "c",
      "h"
    ],
    [
      "i",
      "d"
    ],
    [
      " ",
      "it"
    ],
    [
      " y",
      "ou"
    ],
    [
      " ",
      "u"
    ],
    [
      " hi",
      "s"
    ],
    [
      "it",
      "h"
    ],
    [
      "a",
      "y"
    ],
    [
      "v",
      "er"
    ],
    [
      "\u00e2\u0080",
      "\u0099"
    ],
    [
      "c",
      "e"
    ],
    [
      "t",
      "he"
    ],
    [
      "a",
      "d"
    ],
    [
      " f",
      "or"
    ],
    [
      " w",
      "ith"
    ],
    [
      "h",
      "o"
    ],
    [
      "a",
      "l"
    ],
    [
      "i",
      "r"
    ],
    [
      " a",
      "s"
    ],
    [
      "e",
      "t"
    ],
    [
      "en",
      "t"
    ],
    [
      " s",
      "t"
    ],
    [
      "r",
      "i"
    ],
    [
      "\u00e2\u0080",
      "\u009c"
    ],
    [
      "c",
      "k"
    ],
    [
      "r",
      "o"
    ],
    [
      " s",
      "e"
    ],
    [
      " t",
      "h"
    ],
    [
      " ",
      "is"
    ],
    [
      "gh",
      "t"
    ],
    [
      " w",
      "as"
    ],
    [
      " ",
      "T"
    ],
    [
      "u",
      "r"
    ],
    [
      " w",
      "e"
    ],
    [
      "k",
      "e"
    ],
    [
      "\u00e2\u0080",
      "\u009d"
    ],
    [
      " ",
      "re"
    ],
    [
      "i",
      "ll"
    ],
    [
      "hi",
      "s"
    ],
    [
      "a",
      "nd"
    ],
    [
      "a",
      "in"
    ],
    [
      " ",
      "h"
    ],
    [
      " hi",
      "m"
    ],
    [
      " a",
      "ll"
    ],
    [
      " ",
      "A"
    ],
    [
      " a",
      "n"
    ],
    [
      "o",
      "d"
    ],
    [
      "u",
      "s"
    ],
    [
      "\u00e2\u0080",
      "\u0094"
    ],
    [
      "a",
      "m"
    ],
    [
      " n",
      "ot"
    ],
    [
      "i",
      "on"
    ],
    [
      " m",
      "e"
    ],
    [
      " s",
      "o"
    ],
    [
      "s",
      "s"
    ],
    [
      "om",
      "e"
    ],
    [
      " a",
      "t"
    ],
    [
      "o",
      "re"
    ],
    [
      "i",
      "l"
    ],
    [
      " ",
      "S"
    ],
    [
      "c",
      "t"
    ],
    [
      "i",
      "m"
    ],
    [
      "r",
      "om"
    ],
    [
      " s",
      "u"
    ],
    [
      "r",
      "a"
    ],
    [
      "ou",
      "ld"
    ],
    [
      " b",
      "ut"
    ],
    [
      " t",
      "his"
    ],
    [
      "i",
      "f"
    ],
    [
      "he",
      "n"
    ],
    [
      "t",
      "er"
    ],
    [
      " u",
      "p"
    ],
    [
      " s",
      "a"
    ],
    [
      "ha",
      "le"
    ],
    [
      "i",
      "c"
    ],
    [
      "p",
      "e"
    ],
    [
      " b",
      "y"
    ],
    [
      " w",
      "hi"
    ],
    [
      "a",
      "st"
    ],
    [
      " f",
      "rom"
    ],
    [
      "i",
      "ght"
    ],
    [
      " ha",
      "d"
    ],
    [
      "q",
      "u"
    ],
    [
      "ou",
      "t"
    ],
    [
      " ha",
      "ve"
    ],
    [
      "he",
      "r"
    ],
    [
      " m",
      "y"
    ],
    [
      "g",
      "e"
    ],
    [
      "ou",
      "s"
    ],
    [
      " ",
      "le"
    ],
    [
      "t",
      "o"
    ],
    [
      " d",
      "e"
    ],
    [
      "a",
      "ll"
    ],
    [
      "re",
      "d"
    ],
    [
      "on",
      "g"
    ],
    [
      " o",
      "r"
    ],
    [
      "b",
      "le"
    ],
    [
      "ar",
      "d"
    ],
    [
      " on",
      "e"
    ],
    [
      "l",
      "o"
    ],
    [
      "r",
      "ou"
    ],
    [
      " the",
      "y"
    ],
    [
      "an",
      "t"
    ],
    [
      " ",
      "P"
    ],
    [
      "the",
      "r"
    ],
    [
      "u",
      "l"
    ],
    [
      "t",
      "h"
    ],
    [
      " ",
      "\u00e2\u0080\u009c"
    ],
    [
      " the",
      "m"
    ],
    [
      " g",
      "o"
    ],
    [
      " m",
      "an"
    ],
    [
      " l",
      "i"
    ],
    [
      " w",
      "ho"
    ],
    [
      "n",
      "t"
    ],
    [
      " ",
      "v"
    ],
    [
      " ",
      "W"
    ],
    [
      "o",
      "k"
    ],
    [
      " w",
      "hale"
    ],
    [
      "e",
      "m"
    ],
    [
      " ",
      "B"
    ],
    [
      " T",
      "he"
    ],
    [
      "er",
      "s"
    ],
    [
      " a",
      "re"
    ],
    [
      " ",
      "k"
    ],
    [
      " we",
      "re"
    ],
    [
      "le",
      "d"
    ],
    [
      "in",
      "d"
    ],
    [
      " the",
      "re"
    ],
    [
      ".",
      "\u00e2\u0080\u009d"
    ],
    [
      "u",
      "n"
    ],
    [
      "hi",
      "p"
    ],
    [
      " d",
      "o"
    ],
    [
      "se",
      "l"
    ],
    [
      " he",
      "r"
    ],
    [
      " a",
      "l"
    ],
    [
      "es",
      "s"
    ],
    [
      " w",
      "ill"
    ],
    [
      " ",
      "H"
    ],
    [
      " the",
      "ir"
    ],
    [
      "ar",
      "t"
    ],
    [
      "a",
      "k"
    ],
    [
      "ow",
      "n"
    ],
    [
      "p",
      "t"
    ],
    [
      " n",
      "o"
    ],
    [
      "p",
      "o"
    ],
    [
      " n",
      "e"
    ],
    [
      "l",
      "a"
    ],
    [
      "u",
      "m"
    ],
    [
      " o",
      "ut"
    ],
    [
      "e",
      "ll"
    ],
    [
      " w",
      "hen"
    ],
    [
      "on",
      "e"
    ],
    [
      "v",
      "en"
    ],
    [
      " whi",
      "ch"
    ],
    [
      "ver",
      "y"
    ],
    [
      " a",
      "b"
    ],
    [
      " you",
      "r"
    ],
    [
      " ",
      "M"
    ],
    [
      "p",
      "er"
    ],
    [
      "in",
      "e"
    ],
    [
      "t",
      "e"
    ],
    [
      "am",
      "e"
    ],
    [
      " c",
      "on"
    ],
    [
      " s",
      "ome"
    ],
    [
      " ",
      "C"
    ],
    [
      "u",
      "st"
    ],
    [
      " b",
      "o"
    ],
    [
      "l",
      "i"
    ],
    [
      "o",
      "st"
    ],
    [
      " s",
      "h"
    ],
    [
      " ",
      "r"
    ],
    [
      "id",
      "e"
    ],
    [
      "re",
      "at"
    ],
    [
      "he",
      "re"
    ],
    [
      " s",
      "hip"
    ],
    [
      " n",
      "ow"
    ],
    [
      "ou",
      "r"
    ],
    [
      "or",
      "t"
    ],
    [
      "i",
      "st"
    ],
    [
      " the",
      "n"
    ],
    [
      " w",
      "or"
    ],
    [
      " th",
      "ou"
    ],
    [
      "ha",
      "n"
    ],
    [
      "re",
      "s"
    ],
    [
      " s",
      "he"
    ],
    [
      " a",
      "g"
    ],
    [
      "a",
      "ke"
    ],
    [
      " c",
      "om"
    ],
    [
      "w",
      "e"
    ],
    [
      " l",
      "o"
    ],
    [
      "e",
      "p"
    ],
    [
      " up",
      "on"
    ],
    [
      "u",
      "e"
    ],
    [
      " sa",
      "id"
    ],
    [
      " in",
      "to"
    ],
    [
      "sel",
      "f"
    ],
    [
      " u",
      "n"
    ],
    [
      " ",
      "N"
    ],
    [
      "a",
      "c"
    ],
    [
      "at",
      "e"
    ],
    [
      "r",
      "y"
    ],
    [
      "w",
      "n"
    ],
    [
      " o",
      "ther"
    ],
    [
      " w",
      "ould"
    ],
    [
      "f",
      "ore"
    ],
    [
      " o",
      "ver"
    ],
    [
      "p",
      "p"
    ],
    [
      " s",
      "p"
    ],
    [
      " an",
      "y"
    ],
    [
      "he",
      "d"
    ],
    [
      " e",
      "x"
    ],
    [
      "a",
      "ble"
    ],
    [
      " f",
      "e"
    ],
    [
      " c",
      "o"
    ],
    [
      " li",
      "ke"
    ],
    [
      " c",
      "an"
    ],
    [
      " be",
      "en"
    ],
    [
      "a",
      "ch"
    ],
    [
      "at",
      "ion"
    ],
    [
      " ",
      "F"
    ],
    [
      " w",
      "hat"
    ],
    [
      " u",
      "s"
    ],
    [
      " ",
      "j"
    ],
    [
      "i",
      "ve"
    ],
    [
      "a",
      "g"
    ],
    [
      " ab",
      "out"
    ],
    [
      " a",
      "m"
    ],
    [
      "i",
      "g"
    ],
    [
      "ss",
      "es"
    ],
    [
      " ",
      "ro"
    ],
    [
      "w",
      "ay"
    ],
    [
      " ",
      "U"
    ],
    [
      "o",
      "f"
    ],
    [
      " m",
      "ore"
    ],
    [
      "ly",
      "sses"
    ],
    [
      " k",
      "n"
    ],
    [
      "rou",
      "nd"
    ],
    [
      " p",
      "o"
    ],
    [
      " ha",
      "nd"
    ],
    [
      " ",
      " "
    ],
    [
      "e",
      "st"
    ],
    [
      "ou",
      "nd"
    ],
    [
      "is",
      "h"
    ],
    [
      " ag",
      "ain"
    ],
    [
      " ",
      "D"
    ],
    [
      "v",
      "ing"
    ],
    [
      " se",
      "a"
    ],
    [
      " ",
      "if"
    ],
    [
      " c",
      "a"
    ],
    [
      " ",
      "G"
    ],
    [
      "ur",
      "n"
    ],
    [
      "a",
      "ck"
    ],
    [
      " ",
      "ho"
    ],
    [
      " ",
      "L"
    ],
    [
      "r",
      "an"
    ],
    [
      "e",
      "l"
    ],
    [
      " ha",
      "s"
    ],
    [
      " a",
      "f"
    ],
    [
      "it",
      "y"
    ],
    [
      " s",
      "ha"
    ],
    [
      " y",
      "e"
    ],
    [
      ",",
      "\u00e2\u0080\u009d"
    ],
    [
      " B",
      "ut"
    ],
    [
      " p",
      "ro"
    ],
    [
      " ",
      "E"
    ],
    [
      " o",
      "ld"
    ],
    [
      " S",
      "t"
    ],
    [
      "in",
      "k"
    ],
    [
      "s",
      "o"
    ],
    [
      "re",
      "e"
    ],
    [
      "ing",
      "s"
    ],
    [
      " t",
      "im"
    ],
    [
      "d",
      "e"
    ],
    [
      "v",
      "es"
    ],
    [
      " d",
      "own"
    ],
    [
      "or",
      "s"
    ],
    [
      "le",
      "ss"
    ],
    [
      "u",
      "ll"
    ],
    [
      " of",
      "f"
    ],
    [
      "nd",
      "er"
    ],
    [
      "ar",
      "s"
    ],
    [
      "ha",
      "b"
    ],
    [
      "u",
      "ck"
    ],
    [
      "all",
      "y"
    ],
    [
      " m",
      "en"
    ],
    [
      "w",
      "o"
    ],
    [
      "u",
      "b"
    ],
    [
      " U",
      "lysses"
    ],
    [
      " ",
      "qu"
    ],
    [
      " ",
      "O"
    ],
    [
      "u",
      "ch"
    ],
    [
      " se",
      "e"
    ],
    [
      "ad",
      "e"
    ],
    [
      "p",
      "le"
    ],
    [
      "b",
      "e"
    ],
    [
      "f",
      "t"
    ],
    [
      " d",
      "id"
    ],
    [
      "w",
      "ard"
    ],
    [
      "u",
      "re"
    ],
    [
      " l",
      "ong"
    ],
    [
      " o",
      "wn"
    ],
    [
      "as",
      "s"
    ],
    [
      "b",
      "er"
    ],
    [
      "h",
      "ing"
    ],
    [
      " the",
      "se"
    ],
    [
      "ot",
      "her"
    ],
    [
      " h",
      "ow"
    ],
    [
      "o",
      "l"
    ],
    [
      "i",
      "es"
    ],
    [
      " m",
      "ay"
    ],
    [
      "r",
      "ow"
    ],
    [
      "e",
      "ct"
    ],
    [
      "ou",
      "se"
    ],
    [
      " s",
      "ay"
    ],
    [
      " he",
      "re"
    ],
    [
      "it",
      "t"
    ],
    [
      "c",
      "a"
    ],
    [
      " ha",
      "r"
    ],
    [
      "i",
      "ous"
    ],
    [
      " g",
      "reat"
    ],
    [
      "at",
      "her"
    ],
    [
      " w",
      "here"
    ],
    [
      " se",
      "em"
    ],
    [
      " H",
      "e"
    ],
    [
      "ou",
      "nt"
    ],
    [
      "a",
      "ge"
    ],
    [
      " A",
      "hab"
    ],
    [
      "n",
      "g"
    ],
    [
      "v",
      "ed"
    ],
    [
      " w",
      "at"
    ],
    [
      " su",
      "ch"
    ],
    [
      " on",
      "ly"
    ],
    [
      "an",
      "ce"
    ],
    [
      " a",
      "r"
    ],
    [
      " ",
      "very"
    ],
    [
      " w",
      "ay"
    ],
    [
      "i",
      "re"
    ],
    [
      " sh",
      "ould"
    ],
    [
      "l",
      "ing"
    ],
    [
      "e",
      "qu"
    ],
    [
      "n",
      "ess"
    ],
    [
      " he",
      "ad"
    ],
    [
      "ar",
      "k"
    ],
    [
      "m",
      "an"
    ],
    [
      "e",
      "ver"
    ],
    [
      " d",
      "ay"
    ],
    [
      "e",
      "le"
    ],
    [
      " t",
      "han"
    ],
    [
      " I",
      "t"
    ],
    [
      " ",
      "en"
    ],
    [
      "n",
      "ing"
    ],
    [
      "a",
      "b"
    ],
    [
      "ho",
      "se"
    ],
    [
      " p",
      "e"
    ],
    [
      " af",
      "ter"
    ],
    [
      " st",
      "ill"
    ],
    [
      "re",
      "w"
    ],
    [
      " o",
      "ur"
    ],
    [
      " tim",
      "e"
    ],
    [
      " bo",
      "at"
    ],
    [
      " h",
      "ouse"
    ],
    [
      " be",
      "fore"
    ],
    [
      " f",
      "a"
    ],
    [
      "\r\n",
      " "
    ],
    [
      "le",
      "s"
    ],
    [
      " thou",
      "gh"
    ],
    [
      " c",
      "ome"
    ],
    [
      " ",
      "J"
    ],
    [
      " t",
      "wo"
    ],
    [
      " lo",
      "ok"
    ],
    [
      "at",
      "ed"
    ],
    [
      " it",
      "s"
    ],
    [
      "an",
      "s"
    ],
    [
      "i",
      "ck"
    ],
    [
      "or",
      "d"
    ],
    [
      " s",
      "w"
    ],
    [
      "rou",
      "gh"
    ],
    [
      " c",
      "ould"
    ],
    [
      " m",
      "ust"
    ],
    [
      " f",
      "o"
    ],
    [
      " ",
      "ri"
    ],
    [
      "f",
      "f"
    ],
    [
      " p",
      "l"
    ],
    [
      " go",
      "od"
    ],
    [
      "ri",
      "ed"
    ],
    [
      " m",
      "uch"
    ],
    [
      "if",
      "e"
    ],
    [
      " p",
      "er"
    ],
    [
      "y",
      "e"
    ],
    [
      "t",
      "hat"
    ],
    [
      " ",
      "im"
    ],
    [
      "in",
      "t"
    ],
    [
      " p",
      "re"
    ],
    [
      "at",
      "h"
    ],
    [
      "o",
      "ve"
    ],
    [
      "is",
      "e"
    ],
    [
      " y",
      "et"
    ],
    [
      " b",
      "ack"
    ],
    [
      " s",
      "pe"
    ],
    [
      " e",
      "very"
    ],
    [
      "u",
      "d"
    ],
    [
      " w",
      "ent"
    ],
    [
      " ",
      "round"
    ],
    [
      " m",
      "ade"
    ],
    [
      "T",
      "he"
    ],
    [
      " whi",
      "le"
    ],
    [
      " p",
      "art"
    ],
    [
      "ir",
      "st"
    ],
    [
      "i",
      "e"
    ],
    [
      "a",
      "re"
    ],
    [
      "pt",
      "ain"
    ],
    [
      "o",
      "od"
    ],
    [
      " t",
      "hose"
    ],
    [
      " t",
      "ell"
    ],
    [
      "on",
      "s"
    ],
    [
      "f",
      "or"
    ],
    [
      " m",
      "ight"
    ],
    [
      " kn",
      "ow"
    ],
    [
      "k",
      "s"
    ],
    [
      " m",
      "ost"
    ],
    [
      " ",
      "ke"
    ],
    [
      "c",
      "c"
    ],
    [
      " he",
      "a"
    ],
    [
      "\u00e2\u0080",
      "\u0098"
    ],
    [
      " ne",
      "ver"
    ],
    [
      " g",
      "od"
    ],
    [
      " d",
      "is"
    ],
    [
      "l",
      "and"
    ],
    [
      "p",
      "s"
    ],
    [
      "e",
      "g"
    ],
    [
      "m",
      "en"
    ],
    [
      "er",
      "v"
    ],
    [
      "en",
      "e"
    ],
    [
      "T",
      "E"
    ],
    [
      "f",
      "ul"
    ],
    [
      " s",
      "m"
    ],
    [
      "ou",
      "gh"
    ],
    [
      "n",
      "ot"
    ],
    [
      "c",
      "i"
    ],
    [
      "c",
      "es"
    ],
    [
      " ",
      "ra"
    ],
    [
      "!",
      "\u00e2\u0080\u009d"
    ],
    [
      " c",
      "ha"
    ],
    [
      "ot",
      "h"
    ],
    [
      " th",
      "rough"
    ],
    [
      " W",
      "hale"
    ],
    [
      " A",
      "nd"
    ],
    [
      "H",
      "A"
    ],
    [
      " p",
      "la"
    ],
    [
      "o",
      "y"
    ],
    [
      " l",
      "ast"
    ],
    [
      "m",
      "ost"
    ],
    [
      " b",
      "l"
    ],
    [
      "he",
      "s"
    ],
    [
      "a",
      "ve"
    ],
    [
      "er",
      "t"
    ],
    [
      " s",
      "ide"
    ],
    [
      "m",
      "ent"
    ],
    [
      " e",
      "ven"
    ],
    [
      "ion",
      "s"
    ],
    [
      " t",
      "r"
    ],
    [
      " c",
      "ame"
    ],
    [
      " b",
      "r"
    ],
    [
      " le",
      "t"
    ],
    [
      "m",
      "ach"
    ],
    [
      "mach",
      "us"
    ],
    [
      " a",
      "way"
    ],
    [
      "ub",
      "b"
    ],
    [
      " s",
      "et"
    ],
    [
      " f",
      "irst"
    ],
    [
      " a",
      "d"
    ],
    [
      "it",
      "e"
    ],
    [
      "?",
      "\u00e2\u0080\u009d"
    ],
    [
      " s",
      "c"
    ],
    [
      "c",
      "ed"
    ],
    [
      "TE",
      "R"
    ],
    [
      "j",
      "ect"
    ],
    [
      " wat",
      "er"
    ],
    [
      " sa",
      "il"
    ],
    [
      "i",
      "ce"
    ],
    [
      "ar",
      "y"
    ],
    [
      " am",
      "ong"
    ],
    [
      "itt",
      "le"
    ],
    [
      " h",
      "ome"
    ],
    [
      " be",
      "g"
    ],
    [
      " t",
      "ake"
    ],
    [
      " g",
      "et"
    ],
    [
      "g",
      "er"
    ],
    [
      "P",
      "TER"
    ],
    [
      "HA",
      "PTER"
    ],
    [
      "res",
      "ent"
    ],
    [
      "ar",
      "b"
    ],
    [
      "Q",
      "ue"
    ],
    [
      " st",
      "r"
    ],
    [
      " e",
      "nd"
    ],
    [
      "ig",
      "n"
    ],
    [
      "a",
      "p"
    ],
    [
      "i",
      "ld"
    ],
    [
      " be",
      "t"
    ],
    [
      "c",
      "o"
    ],
    [
      "n",
      "e"
    ],
    [
      "m",
      "e"
    ],
    [
      "u",
      "ght"
    ],
    [
      "he",
      "ad"
    ],
    [
      " man",
      "y"
    ],
    [
      "or",
      "y"
    ],
    [
      "om",
      "et"
    ],
    [
      "f",
      "e"
    ],
    [
      " him",
      "self"
    ],
    [
      " ",
      "Y"
    ],
    [
      "re",
      "ad"
    ],
    [
      "ele",
      "machus"
    ],
    [
      " t",
      "ill"
    ],
    [
      " e",
      "ver"
    ],
    [
      "per",
      "m"
    ],
    [
      "i",
      "v"
    ],
    [
      " m",
      "ake"
    ],
    [
      "t",
      "ing"
    ],
    [
      "C",
      "HAPTER"
    ],
    [
      " sha",
      "ll"
    ],
    [
      " s",
      "on"
    ],
    [
      " be",
      "ing"
    ],
    [
      "t",
      "y"
    ],
    [
      "a",
      "il"
    ],
    [
      " to",
      "o"
    ],
    [
      "re",
      "ss"
    ],
    [
      " t",
      "urn"
    ],
    [
      "ak",
      "ing"
    ],
    [
      " we",
      "ll"
    ],
    [
      " ",
      "("
    ],
    [
      " ",
      "R"
    ],
    [
      "w",
      "hi"
    ],
    [
      "w",
      "ith"
    ],
    [
      " seem",
      "ed"
    ],
    [
      " c",
      "lo"
    ],
    [
      "i",
      "ly"
    ],
    [
      " re",
      "m"
    ],
    [
      " hand",
      "s"
    ],
    [
      "it",
      "ors"
    ],
    [
      " u",
      "nder"
    ],
    [
      " f",
      "l"
    ],
    [
      " c",
      "l"
    ],
    [
      "i",
      "an"
    ],
    [
      "g",
      "ed"
    ],
    [
      " with",
      "out"
    ],
    [
      "ri",
      "e"
    ],
    [
      "b",
      "y"
    ],
    [
      " l",
      "ittle"
    ],
    [
      " f",
      "ar"
    ],
    [
      "equ",
      "eg"
    ],
    [
      "a",
      "id"
    ],
    [
      "Que",
      "equeg"
    ],
    [
      " th",
      "ree"
    ],
    [
      " con",
      "t"
    ],
    [
      " C",
      "a"
    ],
    [
      "ward",
      "s"
    ],
    [
      " wor",
      "k"
    ],
    [
      " on",
      "ce"
    ],
    [
      " c",
      "ar"
    ],
    [
      " l",
      "and"
    ],
    [
      " com",
      "p"
    ],
    [
      " b",
      "oth"
    ],
    [
      " ",
      "1"
    ],
    [
      "o",
      "ple"
    ],
    [
      "B",
      "ut"
    ],
    [
      " m",
      "at"
    ],
    [
      "i",
      "z"
    ],
    [
      "u",
      "se"
    ],
    [
      "y",
      "es"
    ],
    [
      "s",
      "p"
    ],
    [
      " s",
      "ame"
    ],
    [
      "or",
      "n"
    ],
    [
      " c",
      "al"
    ],
    [
      "\r\n",
      "\r\n\r"
    ],
    [
      " n",
      "or"
    ],
    [
      " g",
      "l"
    ],
    [
      "re",
      "n"
    ],
    [
      "b",
      "ut"
    ],
    [
      " st",
      "ran"
    ],
    [
      " St",
      "ubb"
    ],
    [
      " p",
      "r"
    ],
    [
      "t",
      "ed"
    ],
    [
      "en",
      "ce"
    ],
    [
      "ow",
      "s"
    ],
    [
      " al",
      "so"
    ],
    [
      " th",
      "ink"
    ],
    [
      " sa",
      "w"
    ],
    [
      " he",
      "art"
    ],
    [
      "er",
      "ing"
    ],
    [
      "b",
      "o"
    ],
    [
      "a",
      "w"
    ],
    [
      "c",
      "om"
    ],
    [
      " w",
      "ind"
    ],
    [
      " I",
      "n"
    ],
    [
      " to",
      "ok"
    ],
    [
      "u",
      "p"
    ],
    [
      "h",
      "y"
    ],
    [
      "g",
      "o"
    ],
    [
      " g",
      "r"
    ],
    [
      " f",
      "ather"
    ],
    [
      "er",
      "n"
    ],
    [
      " m",
      "ar"
    ],
    [
      "p",
      "en"
    ],
    [
      " again",
      "st"
    ],
    [
      "c",
      "l"
    ],
    [
      " pe",
      "ople"
    ],
    [
      " an",
      "s"
    ],
    [
      "i",
      "ble"
    ],
    [
      "e",
      "red"
    ],
    [
      "al",
      "s"
    ],
    [
      " st",
      "and"
    ],
    [
      "d",
      "s"
    ],
    [
      "ber",
      "g"
    ],
    [
      "at",
      "ing"
    ],
    [
      "as",
      "e"
    ],
    [
      " su",
      "itors"
    ],
    [
      " s",
      "omet"
    ],
    [
      " n",
      "ight"
    ],
    [
      " f",
      "ull"
    ],
    [
      "ur",
      "y"
    ],
    [
      "m",
      "ed"
    ],
    [
      " d",
      "ist"
    ],
    [
      " c",
      "hi"
    ],
    [
      " su",
      "n"
    ],
    [
      " ",
      "["
    ],
    [
      "m",
      "s"
    ],
    [
      "i",
      "x"
    ],
    [
      " g",
      "ot"
    ],
    [
      "pe",
      "ct"
    ],
    [
      " so",
      "on"
    ],
    [
      "ul",
      "ar"
    ],
    [
      " whale",
      "s"
    ],
    [
      " ",
      "ent"
    ],
    [
      " w",
      "o"
    ],
    [
      " s",
      "le"
    ],
    [
      " d",
      "es"
    ],
    [
      " thou",
      "ght"
    ],
    [
      " p",
      "ut"
    ],
    [
      " p",
      "resent"
    ],
    [
      " e",
      "yes"
    ],
    [
      "i",
      "ed"
    ],
    [
      " m",
      "ast"
    ],
    [
      " har",
      "po"
    ],
    [
      " s",
      "l"
    ],
    [
      "v",
      "i"
    ],
    [
      " a",
      "cc"
    ],
    [
      "r",
      "u"
    ],
    [
      "c",
      "ha"
    ],
    [
      " hea",
      "ven"
    ],
    [
      " t",
      "hi"
    ],
    [
      " The",
      "re"
    ],
    [
      " T",
      "elemachus"
    ],
    [
      " F",
      "or"
    ],
    [
      "il",
      "led"
    ],
    [
      " p",
      "ass"
    ],
    [
      " wor",
      "ld"
    ],
    [
      " ",
      "Queequeg"
    ],
    [
      "l",
      "f"
    ],
    [
      "c",
      "hed"
    ],
    [
      " o",
      "b"
    ],
    [
      "y",
      "ou"
    ],
    [
      " th",
      "ing"
    ],
    [
      " ho",
      "ld"
    ],
    [
      "arb",
      "uck"
    ],
    [
      " se",
      "en"
    ],
    [
      " ",
      "\u00e2\u0080\u0098"
    ],
    [
      "s",
      "ed"
    ],
    [
      "p",
      "ed"
    ],
    [
      "od",
      "y"
    ],
    [
      "m",
      "er"
    ],
    [
      " A",
      "s"
    ],
    [
      "t",
      "urn"
    ],
    [
      "s",
      "ide"
    ],
    [
      "a",
      "ce"
    ],
    [
      " an",
      "other"
    ],
    [
      "ut",
      "en"
    ],
    [
      "d",
      "en"
    ],
    [
      " he",
      "ard"
    ],
    [
      "p",
      "l"
    ],
    [
      "ck",
      "s"
    ],
    [
      " in",
      "st"
    ],
    [
      "t",
      "en"
    ],
    [
      " f",
      "ell"
    ],
    [
      " e",
      "ach"
    ],
    [
      " g",
      "i"
    ],
    [
      " T",
      "hen"
    ],
    [
      " l",
      "ife"
    ],
    [
      " g",
      "ive"
    ],
    [
      " s",
      "k"
    ],
    [
      " who",
      "le"
    ],
    [
      " pla",
      "ce"
    ],
    [
      "uten",
      "berg"
    ],
    [
      "le",
      "nt"
    ],
    [
      " th",
      "ings"
    ],
    [
      " f",
      "ound"
    ],
    [
      "r",
      "ink"
    ],
    [
      "i",
      "led"
    ],
    [
      "ation",
      "s"
    ],
    [
      "ar",
      "ing"
    ],
    [
      "s",
      "u"
    ],
    [
      "e",
      "f"
    ],
    [
      " w",
      "he"
    ],
    [
      " god",
      "s"
    ],
    [
      " de",
      "ad"
    ],
    [
      " c",
      "rew"
    ],
    [
      "on",
      "t"
    ],
    [
      " f",
      "ore"
    ],
    [
      "way",
      "s"
    ],
    [
      " m",
      "ind"
    ],
    [
      "th",
      "ing"
    ],
    [
      " st",
      "e"
    ],
    [
      " J",
      "ove"
    ],
    [
      " su",
      "b"
    ],
    [
      " d",
      "ra"
    ],
    [
      " Ca",
      "ptain"
    ],
    [
      " s",
      "ho"
    ],
    [
      " b",
      "ed"
    ],
    [
      "as",
      "k"
    ],
    [
      " t",
      "e"
    ],
    [
      " le",
      "ft"
    ],
    [
      " P",
      "ro"
    ],
    [
      "ert",
      "ain"
    ],
    [
      "equ",
      "od"
    ],
    [
      "we",
      "red"
    ],
    [
      "it",
      "her"
    ],
    [
      "d",
      "er"
    ],
    [
      " whi",
      "te"
    ],
    [
      " w",
      "a"
    ],
    [
      " al",
      "most"
    ],
    [
      "n",
      "er"
    ],
    [
      " j",
      "ust"
    ],
    [
      " h",
      "u"
    ],
    [
      " con",
      "s"
    ],
    [
      " ans",
      "wered"
    ],
    [
      "un",
      "g"
    ],
    [
      "ri",
      "ght"
    ],
    [
      "ic",
      "al"
    ],
    [
      " ne",
      "ar"
    ],
    [
      " l",
      "ight"
    ],
    [
      " c",
      "ried"
    ],
    [
      " St",
      "arbuck"
    ],
    [
      "is",
      "hed"
    ],
    [
      "t",
      "le"
    ],
    [
      "le",
      "n"
    ],
    [
      " s",
      "ort"
    ],
    [
      "m",
      "on"
    ],
    [
      "en",
      "er"
    ],
    [
      " ri",
      "ght"
    ],
    [
      " ke",
      "ep"
    ],
    [
      " ",
      "_"
    ],
    [
      "it",
      "s"
    ],
    [
      " w",
      "ant"
    ],
    [
      " b",
      "ow"
    ],
    [
      "  ",
      "  "
    ],
    [
      "t",
      "s"
    ],
    [
      "om",
      "ent"
    ],
    [
      "in",
      "s"
    ],
    [
      "at",
      "es"
    ],
    [
      " he",
      "l"
    ],
    [
      " har",
      "d"
    ],
    [
      " go",
      "ing"
    ],
    [
      " c",
      "ount"
    ],
    [
      " S",
      "o"
    ],
    [
      "rou",
      "ght"
    ],
    [
      "rie",
      "nd"
    ],
    [
      "ch",
      "ing"
    ],
    [
      " f",
      "ind"
    ],
    [
      " b",
      "ro"
    ],
    [
      "we",
      "en"
    ],
    [
      " not",
      "hing"
    ],
    [
      "s",
      "hip"
    ],
    [
      "li",
      "ke"
    ],
    [
      "i",
      "b"
    ],
    [
      " w",
      "om"
    ],
    [
      "ha",
      "r"
    ],
    [
      "h",
      "us"
    ],
    [
      "c",
      "y"
    ],
    [
      ".",
      "]"
    ],
    [
      " re",
      "ad"
    ],
    [
      " fe",
      "et"
    ],
    [
      "hi",
      "m"
    ],
    [
      " t",
      "er"
    ],
    [
      "sel",
      "ves"
    ],
    [
      "m",
      "b"
    ],
    [
      "g",
      "ing"
    ],
    [
      "a",
      "le"
    ],
    [
      " sle",
      "ep"
    ],
    [
      " T",
      "his"
    ],
    [
      " P",
      "equod"
    ],
    [
      "k",
      "ing"
    ],
    [
      " mat",
      "ter"
    ],
    [
      " e",
      "ar"
    ],
    [
      " W",
      "hen"
    ],
    [
      "l",
      "s"
    ],
    [
      "e",
      "x"
    ],
    [
      "ct",
      "ion"
    ],
    [
      "as",
      "on"
    ],
    [
      "y",
      "s"
    ],
    [
      "en",
      "ed"
    ],
    [
      "a",
      "ir"
    ],
    [
      " al",
      "ong"
    ],
    [
      "w",
      "as"
    ],
    [
      "ow",
      "er"
    ],
    [
      "ll",
      "ow"
    ],
    [
      "w",
      "here"
    ],
    [
      "n",
      "ow"
    ],
    [
      "e",
      "w"
    ],
    [
      "ain",
      "ed"
    ],
    [
      " you",
      "ng"
    ],
    [
      " l",
      "ay"
    ],
    [
      " de",
      "ck"
    ],
    [
      "u",
      "res"
    ],
    [
      "po",
      "se"
    ],
    [
      " s",
      "ir"
    ],
    [
      " po",
      "int"
    ],
    [
      "the",
      "re"
    ],
    [
      "in",
      "erv"
    ],
    [
      "inerv",
      "a"
    ],
    [
      "at",
      "s"
    ],
    [
      " su",
      "p"
    ],
    [
      " m",
      "oment"
    ],
    [
      "v",
      "il"
    ],
    [
      " to",
      "ld"
    ],
    [
      " there",
      "fore"
    ],
    [
      " c",
      "he"
    ],
    [
      " I",
      "f"
    ],
    [
      "y",
      "ing"
    ],
    [
      "out",
      "h"
    ],
    [
      " be",
      "st"
    ],
    [
      "ng",
      "th"
    ],
    [
      "ir",
      "c"
    ],
    [
      "a",
      "h"
    ],
    [
      " s",
      "ing"
    ],
    [
      " cal",
      "led"
    ],
    [
      "t",
      "his"
    ],
    [
      " c",
      "our"
    ],
    [
      " Pro",
      "ject"
    ],
    [
      "uck",
      "et"
    ],
    [
      "i",
      "al"
    ],
    [
      ".",
      "\u00e2\u0080\u0099"
    ],
    [
      " re",
      "turn"
    ],
    [
      " how",
      "ever"
    ],
    [
      " a",
      "ir"
    ],
    [
      " The",
      "y"
    ],
    [
      "v",
      "ent"
    ],
    [
      "i",
      "p"
    ],
    [
      "ge",
      "ther"
    ],
    [
      " whe",
      "ther"
    ],
    [
      " to",
      "wards"
    ],
    [
      " po",
      "or"
    ],
    [
      " l",
      "ine"
    ],
    [
      " my",
      "self"
    ],
    [
      " e",
      "l"
    ],
    [
      "in",
      "ess"
    ],
    [
      " th",
      "us"
    ],
    [
      " re",
      "st"
    ],
    [
      " re",
      "s"
    ],
    [
      " re",
      "p"
    ],
    [
      " m",
      "on"
    ],
    [
      " in",
      "de"
    ],
    [
      " d",
      "one"
    ],
    [
      " a",
      "pp"
    ],
    [
      "la",
      "ck"
    ],
    [
      "ar",
      "ge"
    ],
    [
      " G",
      "utenberg"
    ],
    [
      " ",
      "V"
    ],
    [
      "r",
      "it"
    ],
    [
      "ou",
      "n"
    ],
    [
      "in",
      "ous"
    ],
    [
      "e",
      "e"
    ],
    [
      "ca",
      "use"
    ],
    [
      "ab",
      "ly"
    ],
    [
      " n",
      "ame"
    ],
    [
      " ",
      "ir"
    ],
    [
      "oy",
      "age"
    ],
    [
      "it",
      "ion"
    ],
    [
      "!",
      "\u00e2\u0080\u0094"
    ],
    [
      " s",
      "ur"
    ],
    [
      " in",
      "ter"
    ],
    [
      " hi",
      "gh"
    ],
    [
      " bet",
      "ween"
    ],
    [
      "g",
      "s"
    ],
    [
      "A",
      "nd"
    ],
    [
      " sm",
      "all"
    ],
    [
      " ha",
      "lf"
    ],
    [
      " f",
      "riend"
    ],
    [
      " d",
      "a"
    ],
    [
      "w",
      "hale"
    ],
    [
      " s",
      "at"
    ],
    [
      " ex",
      "ce"
    ],
    [
      "w",
      "hat"
    ],
    [
      "ro",
      "ss"
    ],
    [
      "ra",
      "ve"
    ],
    [
      "is",
      "ed"
    ],
    [
      "c",
      "hes"
    ],
    [
      "H",
      "e"
    ],
    [
      " b",
      "ody"
    ],
    [
      "s",
      "h"
    ],
    [
      "or",
      "ning"
    ],
    [
      "lo",
      "od"
    ],
    [
      "l",
      "ong"
    ],
    [
      " somet",
      "hing"
    ],
    [
      " o",
      "pen"
    ],
    [
      "re",
      "t"
    ],
    [
      "o",
      "ok"
    ],
    [
      " ship",
      "s"
    ],
    [
      " sha",
      "r"
    ],
    [
      " can",
      "not"
    ],
    [
      "p",
      "ro"
    ],
    [
      "nd",
      "ed"
    ],
    [
      "n",
      "o"
    ],
    [
      "ing",
      "ly"
    ],
    [
      "ha",
      "ling"
    ],
    [
      "en",
      "s"
    ],
    [
      " r",
      "un"
    ],
    [
      " en",
      "ough"
    ],
    [
      " ",
      "es"
    ],
    [
      "id",
      "es"
    ],
    [
      "ant",
      "s"
    ],
    [
      "T",
      "hen"
    ],
    [
      "I",
      "t"
    ],
    [
      " d",
      "ou"
    ],
    [
      "u",
      "ri"
    ],
    [
      "d",
      "den"
    ],
    [
      " de",
      "ath"
    ],
    [
      " d",
      "ark"
    ],
    [
      " b",
      "rought"
    ],
    [
      " M",
      "inerva"
    ],
    [
      "pp",
      "ed"
    ],
    [
      "m",
      "p"
    ],
    [
      " s",
      "we"
    ],
    [
      " s",
      "ou"
    ],
    [
      " p",
      "ur"
    ],
    [
      " g",
      "ave"
    ],
    [
      " c",
      "le"
    ],
    [
      " a",
      "p"
    ],
    [
      " S",
      "perm"
    ],
    [
      "ak",
      "es"
    ],
    [
      " s",
      "ight"
    ],
    [
      " m",
      "is"
    ],
    [
      " h",
      "um"
    ],
    [
      " do",
      "es"
    ],
    [
      "c",
      "hi"
    ],
    [
      "ain",
      "s"
    ],
    [
      "ac",
      "hed"
    ],
    [
      " li",
      "ve"
    ],
    [
      " ha",
      "ving"
    ],
    [
      " go",
      "ld"
    ],
    [
      " fa",
      "ce"
    ],
    [
      "a",
      "red"
    ],
    [
      " f",
      "ire"
    ],
    [
      " b",
      "re"
    ],
    [
      "h",
      "om"
    ],
    [
      " w",
      "ar"
    ],
    [
      " he",
      "ar"
    ],
    [
      " f",
      "ast"
    ],
    [
      " day",
      "s"
    ],
    [
      " boat",
      "s"
    ],
    [
      "l",
      "ic"
    ],
    [
      "i",
      "ans"
    ],
    [
      "et",
      "s"
    ],
    [
      "c",
      "ri"
    ],
    [
      " st",
      "ood"
    ],
    [
      " im",
      "p"
    ],
    [
      " c",
      "ut"
    ],
    [
      " bet",
      "ter"
    ],
    [
      "  ",
      " "
    ],
    [
      "h",
      "ow"
    ],
    [
      "ent",
      "ly"
    ],
    [
      " is",
      "land"
    ],
    [
      " Y",
      "ou"
    ],
    [
      "z",
      "e"
    ],
    [
      "ul",
      "t"
    ],
    [
      "as",
      "h"
    ],
    [
      "ak",
      "en"
    ],
    [
      " m",
      "o"
    ],
    [
      " al",
      "ways"
    ],
    [
      "l",
      "led"
    ],
    [
      "if",
      "ic"
    ],
    [
      "at",
      "han"
    ],
    [
      "ant",
      "ucket"
    ],
    [
      "S",
      "t"
    ],
    [
      " the",
      "e"
    ],
    [
      " t",
      "w"
    ],
    [
      " st",
      "ri"
    ],
    [
      " c",
      "ertain"
    ],
    [
      "ur",
      "ther"
    ],
    [
      "u",
      "al"
    ],
    [
      "o",
      "p"
    ],
    [
      "it",
      "ed"
    ],
    [
      "f",
      "rom"
    ],
    [
      "I",
      "n"
    ],
    [
      " tim",
      "es"
    ],
    [
      " in",
      "d"
    ],
    [
      " g",
      "one"
    ],
    [
      " count",
      "ry"
    ],
    [
      " bo",
      "ard"
    ],
    [
      " beg",
      "an"
    ],
    [
      "vi",
      "athan"
    ],
    [
      "c",
      "ing"
    ],
    [
      " l",
      "arge"
    ],
    [
      " h",
      "or"
    ],
    [
      " c",
      "ra"
    ],
    [
      " ar",
      "m"
    ],
    [
      " G",
      "od"
    ],
    [
      "whi",
      "ch"
    ],
    [
      "u",
      "g"
    ],
    [
      "u",
      "de"
    ],
    [
      "lo",
      "pe"
    ],
    [
      " s",
      "po"
    ],
    [
      " n",
      "at"
    ],
    [
      " m",
      "id"
    ],
    [
      " inde",
      "ed"
    ],
    [
      " d",
      "ro"
    ],
    [
      "k",
      "ed"
    ],
    [
      "im",
      "es"
    ],
    [
      "ard",
      "s"
    ],
    [
      " th",
      "y"
    ],
    [
      " s",
      "erv"
    ],
    [
      " f",
      "ish"
    ],
    [
      "k",
      "en"
    ],
    [
      "a",
      "v"
    ],
    [
      "_",
      "."
    ],
    [
      " who",
      "se"
    ],
    [
      " re",
      "g"
    ],
    [
      " k",
      "ind"
    ],
    [
      " e",
      "ye"
    ],
    [
      " d",
      "on"
    ],
    [
      "r",
      "ing"
    ],
    [
      "im",
      "e"
    ],
    [
      "an",
      "ces"
    ],
    [
      " ro",
      "om"
    ],
    [
      " other",
      "s"
    ],
    [
      " ca",
      "ptain"
    ],
    [
      " at",
      "t"
    ],
    [
      "re",
      "am"
    ],
    [
      " g",
      "round"
    ],
    [
      " g",
      "ener"
    ],
    [
      " d",
      "rink"
    ],
    [
      "m",
      "and"
    ],
    [
      "c",
      "on"
    ],
    [
      " c",
      "han"
    ],
    [
      "\u00e2\u0080\u009c",
      "\u00e2\u0080\u0098"
    ],
    [
      "r",
      "own"
    ],
    [
      "on",
      "es"
    ],
    [
      "is",
      "ing"
    ],
    [
      "c",
      "ul"
    ],
    [
      " ye",
      "ars"
    ],
    [
      " w",
      "ine"
    ],
    [
      " v",
      "oyage"
    ],
    [
      " stran",
      "ge"
    ],
    [
      " p",
      "ers"
    ],
    [
      " f",
      "lo"
    ],
    [
      "st",
      "er"
    ],
    [
      "art",
      "ed"
    ],
    [
      " with",
      "in"
    ],
    [
      " el",
      "se"
    ],
    [
      " W",
      "hat"
    ],
    [
      "ha",
      "ve"
    ],
    [
      " w",
      "hom"
    ],
    [
      " in",
      "f"
    ],
    [
      " e",
      "le"
    ],
    [
      " clo",
      "se"
    ],
    [
      "re",
      "en"
    ],
    [
      "o",
      "ver"
    ],
    [
      "in",
      "ce"
    ],
    [
      "ene",
      "lope"
    ],
    [
      "b",
      "s"
    ],
    [
      ".",
      "."
    ],
    [
      " w",
      "ild"
    ],
    [
      " k",
      "ill"
    ],
    [
      " fe",
      "el"
    ],
    [
      "u",
      "red"
    ],
    [
      "the",
      "y"
    ],
    [
      "ry",
      "ing"
    ],
    [
      "r",
      "on"
    ],
    [
      "ort",
      "al"
    ],
    [
      "le",
      "t"
    ],
    [
      "c",
      "ome"
    ],
    [
      " spe",
      "ak"
    ],
    [
      " m",
      "orning"
    ],
    [
      " fo",
      "llow"
    ],
    [
      " W",
      "hi"
    ],
    [
      "the",
      "m"
    ],
    [
      "is",
      "her"
    ],
    [
      "in",
      "es"
    ],
    [
      "a",
      "ct"
    ],
    [
      " st",
      "ra"
    ],
    [
      " s",
      "hi"
    ],
    [
      " N",
      "antucket"
    ],
    [
      "\r\n",
      "\r\n"
    ],
    [
      "w",
      "or"
    ],
    [
      "w",
      "ill"
    ],
    [
      "ter",
      "s"
    ],
    [
      "st",
      "and"
    ],
    [
      "ce",
      "an"
    ],
    [
      "am",
      "p"
    ],
    [
      " wor",
      "d"
    ],
    [
      " w",
      "ife"
    ],
    [
      " f",
      "ine"
    ],
    [
      "w",
      "hen"
    ],
    [
      "nd",
      "ing"
    ],
    [
      "an",
      "y"
    ],
    [
      "U",
      "lysses"
    ],
    [
      " ne",
      "w"
    ],
    [
      " me",
      "an"
    ],
    [
      " harpo",
      "one"
    ],
    [
      " A",
      "r"
    ],
    [
      "ut",
      "h"
    ],
    [
      "m",
      "y"
    ],
    [
      "l",
      "ask"
    ],
    [
      "in",
      "ed"
    ],
    [
      "ha",
      "ca"
    ],
    [
      "N",
      "ow"
    ],
    [
      " say",
      "ing"
    ],
    [
      " co",
      "p"
    ],
    [
      " c",
      "irc"
    ],
    [
      " b",
      "lack"
    ],
    [
      " E",
      "ury"
    ],
    [
      "um",
      "p"
    ],
    [
      "c",
      "an"
    ],
    [
      "an",
      "k"
    ],
    [
      " w",
      "haling"
    ],
    [
      " pr",
      "ay"
    ],
    [
      " k",
      "illed"
    ],
    [
      " A",
      "t"
    ],
    [
      "u",
      "nd"
    ],
    [
      "st",
      "s"
    ],
    [
      "i",
      "ved"
    ],
    [
      "ha",
      "d"
    ],
    [
      "ate",
      "ly"
    ],
    [
      " to",
      "wn"
    ],
    [
      " in",
      "s"
    ],
    [
      " chi",
      "ld"
    ],
    [
      " c",
      "reat"
    ],
    [
      " br",
      "ing"
    ],
    [
      " be",
      "cause"
    ],
    [
      "ro",
      "y"
    ],
    [
      "ow",
      "ed"
    ],
    [
      "id",
      "er"
    ],
    [
      "i",
      "gh"
    ],
    [
      "i",
      "er"
    ],
    [
      "ha",
      "ps"
    ],
    [
      "f",
      "ull"
    ],
    [
      "A",
      "s"
    ],
    [
      " s",
      "perm"
    ],
    [
      " s",
      "ent"
    ],
    [
      " j",
      "o"
    ],
    [
      " ha",
      "pp"
    ],
    [
      " dou",
      "b"
    ],
    [
      "s",
      "ing"
    ],
    [
      "ra",
      "ct"
    ],
    [
      "i",
      "ct"
    ],
    [
      "et",
      "h"
    ],
    [
      " m",
      "other"
    ],
    [
      " for",
      "m"
    ],
    [
      " fe",
      "w"
    ],
    [
      " f",
      "our"
    ],
    [
      " f",
      "in"
    ],
    [
      "ous",
      "ly"
    ],
    [
      "it",
      "ies"
    ],
    [
      "co",
      "nd"
    ],
    [
      "ad",
      "es"
    ],
    [
      " them",
      "selves"
    ],
    [
      " f",
      "am"
    ],
    [
      "ter",
      "n"
    ],
    [
      "ra",
      "p"
    ],
    [
      "or",
      "row"
    ],
    [
      "l",
      "ight"
    ],
    [
      "ho",
      "ld"
    ],
    [
      "a",
      "e"
    ],
    [
      " stran",
      "ger"
    ],
    [
      " spo",
      "ke"
    ],
    [
      " po",
      "ss"
    ],
    [
      " ir",
      "on"
    ],
    [
      " b",
      "lood"
    ],
    [
      " T",
      "h"
    ],
    [
      " ",
      "K"
    ],
    [
      "ught",
      "er"
    ],
    [
      "o",
      "ck"
    ],
    [
      "ll",
      "y"
    ],
    [
      "d",
      "o"
    ],
    [
      "ar",
      "n"
    ],
    [
      " w",
      "ood"
    ],
    [
      " re",
      "ason"
    ],
    [
      " pl",
      "ain"
    ],
    [
      " o",
      "il"
    ],
    [
      " fa",
      "ir"
    ],
    [
      " W",
      "e"
    ],
    [
      " F",
      "lask"
    ],
    [
      "u",
      "nder"
    ],
    [
      "re",
      "st"
    ],
    [
      "l",
      "t"
    ],
    [
      "d",
      "ed"
    ],
    [
      "c",
      "lo"
    ],
    [
      ",",
      "\u00e2\u0080\u0094"
    ],
    [
      " to",
      "gether"
    ],
    [
      " m",
      "ark"
    ],
    [
      " m",
      "ain"
    ],
    [
      " it",
      "self"
    ],
    [
      " gi",
      "ven"
    ],
    [
      " de",
      "ep"
    ],
    [
      " c",
      "or"
    ],
    [
      " P",
      "enelope"
    ],
    [
      "whi",
      "le"
    ],
    [
      "u",
      "ff"
    ],
    [
      "se",
      "y"
    ],
    [
      "il",
      "t"
    ],
    [
      "i",
      "ar"
    ],
    [
      ",",
      "\u00e2\u0080\u0099"
    ],
    [
      " tr",
      "ue"
    ],
    [
      " t",
      "al"
    ],
    [
      " s",
      "ound"
    ],
    [
      " p",
      "ri"
    ],
    [
      " c",
      "all"
    ],
    [
      " b",
      "us"
    ],
    [
      "ag",
      "es"
    ],
    [
      " seem",
      "s"
    ],
    [
      " s",
      "ign"
    ],
    [
      " f",
      "urther"
    ],
    [
      " d",
      "ri"
    ],
    [
      "o",
      "ld"
    ],
    [
      "h",
      "ind"
    ],
    [
      "b",
      "in"
    ],
    [
      " v",
      "is"
    ],
    [
      " in",
      "v"
    ],
    [
      " f",
      "le"
    ],
    [
      "ot",
      "t"
    ],
    [
      "o",
      "se"
    ],
    [
      "ic",
      "ular"
    ],
    [
      "g",
      "y"
    ],
    [
      " t",
      "ou"
    ],
    [
      " st",
      "ay"
    ],
    [
      " le",
      "a"
    ],
    [
      " e",
      "ither"
    ],
    [
      "m",
      "ast"
    ],
    [
      "li",
      "ed"
    ],
    [
      "d",
      "ys"
    ],
    [
      "an",
      "g"
    ],
    [
      " se",
      "as"
    ],
    [
      " p",
      "le"
    ],
    [
      " A",
      "l"
    ],
    [
      "\u00e2\u0080\u0094",
      "_"
    ],
    [
      "w",
      "ing"
    ],
    [
      "w",
      "ho"
    ],
    [
      "of",
      "f"
    ],
    [
      "l",
      "ow"
    ],
    [
      "g",
      "in"
    ],
    [
      " look",
      "ing"
    ],
    [
      " ap",
      "pe"
    ],
    [
      " N",
      "o"
    ],
    [
      "u",
      "nt"
    ],
    [
      "u",
      "ally"
    ],
    [
      " t",
      "ran"
    ],
    [
      " t",
      "aken"
    ],
    [
      " su",
      "re"
    ],
    [
      " le",
      "ngth"
    ],
    [
      " l",
      "ow"
    ],
    [
      " inst",
      "ant"
    ],
    [
      " e",
      "re"
    ],
    [
      " do",
      "or"
    ],
    [
      " af",
      "f"
    ],
    [
      " M",
      "o"
    ],
    [
      " It",
      "haca"
    ],
    [
      "l",
      "er"
    ],
    [
      " us",
      "ed"
    ],
    [
      " sp",
      "out"
    ],
    [
      " qu",
      "est"
    ],
    [
      " le",
      "g"
    ],
    [
      " kn",
      "own"
    ],
    [
      " ke",
      "pt"
    ],
    [
      " ca",
      "re"
    ],
    [
      "w",
      "ise"
    ],
    [
      "i",
      "le"
    ],
    [
      "f",
      "ter"
    ],
    [
      "b",
      "ed"
    ],
    [
      "W",
      "hat"
    ],
    [
      " su",
      "dden"
    ],
    [
      " str",
      "ong"
    ],
    [
      " hel",
      "p"
    ],
    [
      " com",
      "es"
    ],
    [
      "m",
      "ing"
    ],
    [
      "li",
      "e"
    ],
    [
      "d",
      "le"
    ],
    [
      "a",
      "z"
    ],
    [
      " to",
      "p"
    ],
    [
      " ne",
      "ed"
    ],
    [
      " f",
      "r"
    ],
    [
      " e",
      "at"
    ],
    [
      " S",
      "he"
    ],
    [
      " N",
      "ow"
    ],
    [
      "W",
      "hen"
    ],
    [
      "H",
      "E"
    ],
    [
      " v",
      "o"
    ],
    [
      " in",
      "t"
    ],
    [
      " a",
      "ct"
    ],
    [
      "x",
      "t"
    ],
    [
      "un",
      "e"
    ],
    [
      "the",
      "less"
    ],
    [
      "on",
      "ah"
    ],
    [
      "ene",
      "ath"
    ],
    [
      "en",
      "se"
    ],
    [
      "ck",
      "ed"
    ],
    [
      "c",
      "ount"
    ],
    [
      "ae",
      "us"
    ],
    [
      " your",
      "self"
    ],
    [
      " turn",
      "ed"
    ],
    [
      " look",
      "ed"
    ],
    [
      " fe",
      "ar"
    ],
    [
      "ur",
      "al"
    ],
    [
      "pp",
      "ing"
    ],
    [
      "ie",
      "ld"
    ],
    [
      "id",
      "ed"
    ],
    [
      "ick",
      "ed"
    ],
    [
      "ic",
      "ally"
    ],
    [
      "ent",
      "s"
    ],
    [
      "c",
      "la"
    ],
    [
      "at",
      "tle"
    ],
    [
      "an",
      "e"
    ],
    [
      " t",
      "ri"
    ],
    [
      " sou",
      "l"
    ],
    [
      " m",
      "outh"
    ],
    [
      " ear",
      "th"
    ],
    [
      " d",
      "ire"
    ],
    [
      " c",
      "ity"
    ],
    [
      "s",
      "ome"
    ],
    [
      "full",
      "y"
    ],
    [
      " v",
      "es"
    ],
    [
      " cha",
      "r"
    ],
    [
      " ",
      "ill"
    ],
    [
      "\r\n",
      "\r\n "
    ],
    [
      "ver",
      "s"
    ],
    [
      "ur",
      "ing"
    ],
    [
      " wom",
      "en"
    ],
    [
      " w",
      "hy"
    ],
    [
      " ves",
      "sel"
    ],
    [
      " se",
      "c"
    ],
    [
      " re",
      "f"
    ],
    [
      " m",
      "ount"
    ],
    [
      " j",
      "aw"
    ],
    [
      " in",
      "c"
    ],
    [
      " fell",
      "ow"
    ],
    [
      " Whi",
      "te"
    ],
    [
      "\u00e2\u0080\u0094",
      "\u00e2\u0080\u009c"
    ],
    [
      "ious",
      "ly"
    ],
    [
      "f",
      "ort"
    ],
    [
      " stand",
      "ing"
    ],
    [
      " sa",
      "v"
    ],
    [
      " r",
      "ather"
    ],
    [
      " c",
      "ase"
    ],
    [
      " L",
      "e"
    ],
    [
      "the",
      "ir"
    ],
    [
      "se",
      "e"
    ],
    [
      "rou",
      "ble"
    ],
    [
      "read",
      "y"
    ],
    [
      "ix",
      "ed"
    ],
    [
      "e",
      "an"
    ],
    [
      "cl",
      "ud"
    ],
    [
      "at",
      "er"
    ],
    [
      "a",
      "ut"
    ],
    [
      "T",
      "here"
    ],
    [
      " t",
      "re"
    ],
    [
      " stra",
      "ight"
    ],
    [
      " somet",
      "imes"
    ],
    [
      " p",
      "ort"
    ],
    [
      " m",
      "aking"
    ],
    [
      " f",
      "isher"
    ],
    [
      " cont",
      "in"
    ],
    [
      " con",
      "c"
    ],
    [
      " com",
      "ing"
    ],
    [
      "s",
      "pe"
    ],
    [
      "or",
      "m"
    ],
    [
      "it",
      "ude"
    ],
    [
      "cul",
      "iar"
    ],
    [
      "T",
      "hus"
    ],
    [
      "O",
      "O"
    ],
    [
      "?",
      "\u00e2\u0080\u0094"
    ],
    [
      " su",
      "ff"
    ],
    [
      " st",
      "ory"
    ],
    [
      " s",
      "n"
    ],
    [
      " ent",
      "ire"
    ],
    [
      " be",
      "hind"
    ],
    [
      " P",
      "ele"
    ],
    [
      " N",
      "or"
    ],
    [
      " D",
      "ick"
    ],
    [
      " ",
      "\u00e2\u0080\u0094_"
    ],
    [
      "m",
      "ore"
    ],
    [
      "l",
      "ve"
    ],
    [
      "iz",
      "ed"
    ],
    [
      "if",
      "fe"
    ],
    [
      " u",
      "se"
    ],
    [
      " t",
      "able"
    ],
    [
      " re",
      "ached"
    ],
    [
      " pers",
      "on"
    ],
    [
      " of",
      "ten"
    ],
    [
      " li",
      "ving"
    ],
    [
      " l",
      "aid"
    ],
    [
      " kn",
      "ew"
    ],
    [
      " im",
      "m"
    ],
    [
      " for",
      "th"
    ],
    [
      " da",
      "ughter"
    ],
    [
      " ad",
      "v"
    ],
    [
      " J",
      "onah"
    ],
    [
      "uri",
      "ous"
    ],
    [
      "um",
      "ber"
    ],
    [
      "the",
      "n"
    ],
    [
      "p",
      "r"
    ],
    [
      "our",
      "s"
    ],
    [
      "l",
      "ish"
    ],
    [
      "c",
      "al"
    ],
    [
      "M",
      "y"
    ],
    [
      " t",
      "ail"
    ],
    [
      " sh",
      "ow"
    ],
    [
      " re",
      "ce"
    ],
    [
      " a",
      "c"
    ],
    [
      " ",
      "\u00e2\u0080\u0099"
    ],
    [
      "um",
      "aeus"
    ],
    [
      "s",
      "er"
    ],
    [
      "s",
      "ail"
    ],
    [
      "itt",
      "ing"
    ],
    [
      "ild",
      "ad"
    ],
    [
      " wor",
      "ds"
    ],
    [
      " wom",
      "an"
    ],
    [
      " sh",
      "ort"
    ],
    [
      " s",
      "ince"
    ],
    [
      " pro",
      "per"
    ],
    [
      " per",
      "haps"
    ],
    [
      " o",
      "cc"
    ],
    [
      " ho",
      "pe"
    ],
    [
      " b",
      "eneath"
    ],
    [
      "w",
      "er"
    ],
    [
      "re",
      "nt"
    ],
    [
      "la",
      "us"
    ],
    [
      "b",
      "and"
    ],
    [
      ")",
      ","
    ],
    [
      " wat",
      "ers"
    ],
    [
      " thi",
      "r"
    ],
    [
      " s",
      "qu"
    ],
    [
      " qu",
      "ite"
    ],
    [
      " o",
      "ars"
    ],
    [
      " le",
      "ast"
    ],
    [
      " chi",
      "ef"
    ],
    [
      " c",
      "r"
    ],
    [
      " D",
      "o"
    ],
    [
      "we",
      "re"
    ],
    [
      "ment",
      "s"
    ],
    [
      "if",
      "t"
    ],
    [
      "if",
      "f"
    ],
    [
      "id",
      "ent"
    ],
    [
      "i",
      "et"
    ],
    [
      "c",
      "ame"
    ],
    [
      " wor",
      "ks"
    ],
    [
      " thi",
      "ck"
    ],
    [
      " se",
      "nd"
    ],
    [
      " se",
      "at"
    ],
    [
      " ha",
      "m"
    ],
    [
      " com",
      "ple"
    ],
    [
      " b",
      "it"
    ],
    [
      "\r\n",
      "   "
    ],
    [
      "w",
      "ould"
    ],
    [
      "th",
      "ough"
    ],
    [
      "ri",
      "but"
    ],
    [
      "p",
      "re"
    ],
    [
      "k",
      "es"
    ],
    [
      "i",
      "ves"
    ],
    [
      "ha",
      "nd"
    ],
    [
      "0",
      "0"
    ],
    [
      " st",
      "re"
    ],
    [
      " me",
      "ans"
    ],
    [
      " m",
      "er"
    ],
    [
      " m",
      "aid"
    ],
    [
      " l",
      "ost"
    ],
    [
      " harpo",
      "on"
    ],
    [
      " f",
      "ight"
    ],
    [
      " c",
      "ur"
    ],
    [
      " any",
      "thing"
    ],
    [
      " Mo",
      "by"
    ],
    [
      "ra",
      "ce"
    ],
    [
      "ous",
      "and"
    ],
    [
      "ay",
      "ing"
    ],
    [
      "ain",
      "ing"
    ],
    [
      " l",
      "aw"
    ],
    [
      " k",
      "ing"
    ],
    [
      " he",
      "ld"
    ],
    [
      " fo",
      "ot"
    ],
    [
      " c",
      "oun"
    ],
    [
      " al",
      "one"
    ],
    [
      " I",
      "nd"
    ],
    [
      "y",
      "our"
    ],
    [
      "ter",
      "ing"
    ],
    [
      "s",
      "ha"
    ],
    [
      "ott",
      "om"
    ],
    [
      "o",
      "nd"
    ],
    [
      "ent",
      "le"
    ],
    [
      "d",
      "is"
    ],
    [
      " no",
      "ble"
    ],
    [
      " le",
      "ss"
    ],
    [
      " ha",
      "t"
    ],
    [
      " cons",
      "ider"
    ],
    [
      " b",
      "ar"
    ],
    [
      " ab",
      "ove"
    ],
    [
      " E",
      "ng"
    ],
    [
      "ri",
      "es"
    ],
    [
      "r",
      "ous"
    ],
    [
      "o",
      "c"
    ],
    [
      "e",
      "ac"
    ],
    [
      "OO",
      "K"
    ],
    [
      " v",
      "ast"
    ],
    [
      " t",
      "rouble"
    ],
    [
      " su",
      "pp"
    ],
    [
      " se",
      "cond"
    ],
    [
      " s",
      "us"
    ],
    [
      " s",
      "er"
    ],
    [
      " pro",
      "v"
    ],
    [
      " l",
      "a"
    ],
    [
      " h",
      "ur"
    ],
    [
      " co",
      "ok"
    ],
    [
      " b",
      "u"
    ],
    [
      " b",
      "es"
    ],
    [
      " ar",
      "t"
    ],
    [
      " O",
      "h"
    ],
    [
      " A",
      "nt"
    ],
    [
      "te",
      "red"
    ],
    [
      "j",
      "o"
    ],
    [
      "is",
      "s"
    ],
    [
      "in",
      "to"
    ],
    [
      "i",
      "a"
    ],
    [
      "d",
      "ay"
    ],
    [
      "ce",
      "ed"
    ],
    [
      "at",
      "ive"
    ],
    [
      "as",
      "ure"
    ],
    [
      " wo",
      "nder"
    ],
    [
      " w",
      "r"
    ],
    [
      " t",
      "ry"
    ],
    [
      " she",
      "ep"
    ],
    [
      " o",
      "cean"
    ],
    [
      " l",
      "ad"
    ],
    [
      " h",
      "us"
    ],
    [
      " ex",
      "t"
    ],
    [
      " ca",
      "bin"
    ],
    [
      " bus",
      "iness"
    ],
    [
      " b",
      "ur"
    ],
    [
      " ",
      "2"
    ],
    [
      "p",
      "ing"
    ],
    [
      "p",
      "he"
    ],
    [
      "ot",
      "s"
    ],
    [
      "h",
      "ouse"
    ],
    [
      "c",
      "le"
    ],
    [
      "ab",
      "out"
    ],
    [
      "O",
      "n"
    ],
    [
      " wa",
      "ves"
    ],
    [
      " t",
      "aking"
    ],
    [
      " s",
      "im"
    ],
    [
      " read",
      "y"
    ],
    [
      " qu",
      "ick"
    ],
    [
      " qu",
      "ar"
    ],
    [
      " g",
      "u"
    ],
    [
      " e",
      "mb"
    ],
    [
      " cour",
      "se"
    ],
    [
      " as",
      "s"
    ],
    [
      " T",
      "o"
    ],
    [
      " Pele",
      "g"
    ],
    [
      " P",
      "ha"
    ],
    [
      "th",
      "ou"
    ],
    [
      "ree",
      "k"
    ],
    [
      "re",
      "m"
    ],
    [
      "lo",
      "ok"
    ],
    [
      "i",
      "us"
    ],
    [
      "her",
      "d"
    ],
    [
      "dys",
      "sey"
    ],
    [
      "c",
      "ess"
    ],
    [
      "T",
      "elemachus"
    ],
    [
      "O",
      "R"
    ],
    [
      " v",
      "al"
    ],
    [
      " pro",
      "f"
    ],
    [
      " le",
      "ave"
    ],
    [
      " es",
      "ca"
    ],
    [
      " de",
      "ar"
    ],
    [
      " con",
      "f"
    ],
    [
      " b",
      "ul"
    ],
    [
      " O",
      "n"
    ],
    [
      " (",
      "_"
    ],
    [
      "st",
      "ance"
    ],
    [
      "s",
      "c"
    ],
    [
      "o",
      "ly"
    ],
    [
      "o",
      "ke"
    ],
    [
      "k",
      "n"
    ],
    [
      "in",
      "ner"
    ],
    [
      "ie",
      "w"
    ],
    [
      "id",
      "ing"
    ],
    [
      "g",
      "ged"
    ],
    [
      "ene",
      "laus"
    ],
    [
      "ct",
      "ly"
    ],
    [
      " w",
      "rit"
    ],
    [
      " t",
      "a"
    ],
    [
      " p",
      "res"
    ],
    [
      " or",
      "der"
    ],
    [
      " m",
      "ate"
    ],
    [
      " m",
      "ag"
    ],
    [
      " in",
      "side"
    ],
    [
      " f",
      "ree"
    ],
    [
      " f",
      "ly"
    ],
    [
      " ex",
      "p"
    ],
    [
      " de",
      "vil"
    ],
    [
      " com",
      "mand"
    ],
    [
      " co",
      "l"
    ],
    [
      " c",
      "ross"
    ],
    [
      " c",
      "ent"
    ],
    [
      " bre",
      "ak"
    ],
    [
      " T",
      "roy"
    ],
    [
      " P",
      "ip"
    ],
    [
      " B",
      "ildad"
    ],
    [
      "we",
      "lve"
    ],
    [
      "um",
      "b"
    ],
    [
      "s",
      "he"
    ],
    [
      "ren",
      "ce"
    ],
    [
      "p",
      "ent"
    ],
    [
      "o",
      "ol"
    ],
    [
      "c",
      "inous"
    ],
    [
      ";",
      "\u00e2\u0080\u0094"
    ],
    [
      " s",
      "i"
    ],
    [
      " pe",
      "culiar"
    ],
    [
      " p",
      "ie"
    ],
    [
      " o",
      "p"
    ],
    [
      " mast",
      "er"
    ],
    [
      " in",
      "te"
    ],
    [
      " go",
      "es"
    ],
    [
      " g",
      "row"
    ],
    [
      " friend",
      "s"
    ],
    [
      " e",
      "as"
    ],
    [
      " ca",
      "ught"
    ],
    [
      " al",
      "ready"
    ],
    [
      "p",
      "ar"
    ],
    [
      "int",
      "ed"
    ],
    [
      "ib",
      "ly"
    ],
    [
      "i",
      "red"
    ],
    [
      "i",
      "ke"
    ],
    [
      "c",
      "han"
    ],
    [
      "an",
      "ing"
    ],
    [
      " w",
      "all"
    ],
    [
      " pre",
      "c"
    ],
    [
      " part",
      "icular"
    ],
    [
      " hea",
      "v"
    ],
    [
      " fa",
      "ct"
    ],
    [
      " cop",
      "y"
    ],
    [
      " be",
      "aut"
    ],
    [
      "ress",
      "ed"
    ],
    [
      "n",
      "ight"
    ],
    [
      "len",
      "ce"
    ],
    [
      "ist",
      "ed"
    ],
    [
      "ha",
      "nt"
    ],
    [
      "ent",
      "ion"
    ],
    [
      "ci",
      "ally"
    ],
    [
      "c",
      "he"
    ],
    [
      "ant",
      "ic"
    ],
    [
      "T",
      "h"
    ],
    [
      " sw",
      "im"
    ],
    [
      " p",
      "it"
    ],
    [
      " m",
      "et"
    ],
    [
      " m",
      "ad"
    ],
    [
      " harpoone",
      "er"
    ],
    [
      " b",
      "ound"
    ],
    [
      " b",
      "ones"
    ],
    [
      " b",
      "ad"
    ],
    [
      " acc",
      "ount"
    ],
    [
      " Le",
      "viathan"
    ],
    [
      "up",
      "on"
    ],
    [
      "po",
      "s"
    ],
    [
      "o",
      "s"
    ],
    [
      "lo",
      "ft"
    ],
    [
      "iv",
      "ory"
    ],
    [
      "ep",
      "ing"
    ],
    [
      "em",
      "ent"
    ],
    [
      "ce",
      "pt"
    ],
    [
      " s",
      "ix"
    ],
    [
      " res",
      "pect"
    ],
    [
      " re",
      "d"
    ],
    [
      " re",
      "ach"
    ],
    [
      " pre",
      "v"
    ],
    [
      " pl",
      "an"
    ],
    [
      " bo",
      "ok"
    ],
    [
      " b",
      "read"
    ],
    [
      " b",
      "ottom"
    ],
    [
      " S",
      "ee"
    ],
    [
      " H",
      "ow"
    ],
    [
      "st",
      "e"
    ],
    [
      "l",
      "ine"
    ],
    [
      "itt",
      "ed"
    ],
    [
      "ent",
      "y"
    ],
    [
      "em",
      "ed"
    ],
    [
      "e",
      "ans"
    ],
    [
      "d",
      "ing"
    ],
    [
      "d",
      "ess"
    ],
    [
      "bo",
      "ard"
    ],
    [
      "T",
      "his"
    ],
    [
      "E",
      "S"
    ],
    [
      " whale",
      "men"
    ],
    [
      " w",
      "ide"
    ],
    [
      " sho",
      "re"
    ],
    [
      " ro",
      "ll"
    ],
    [
      " r",
      "an"
    ],
    [
      " p",
      "ar"
    ],
    [
      " p",
      "a"
    ],
    [
      " m",
      "ist"
    ],
    [
      " M",
      "r"
    ],
    [
      " He",
      "re"
    ],
    [
      "pt",
      "une"
    ],
    [
      "g",
      "et"
    ],
    [
      "e",
      "ptune"
    ],
    [
      "cha",
      "eans"
    ],
    [
      "a",
      "fter"
    ],
    [
      " vo",
      "ice"
    ],
    [
      " sw",
      "ord"
    ],
    [
      " s",
      "it"
    ],
    [
      " or",
      "d"
    ],
    [
      " head",
      "s"
    ],
    [
      " h",
      "on"
    ],
    [
      " get",
      "ting"
    ],
    [
      " g",
      "ir"
    ],
    [
      " g",
      "ho"
    ],
    [
      " cl",
      "ot"
    ],
    [
      " car",
      "ried"
    ],
    [
      " c",
      "as"
    ],
    [
      " beg",
      "in"
    ],
    [
      " T",
      "hat"
    ],
    [
      " E",
      "umaeus"
    ],
    [
      " B",
      "e"
    ],
    [
      "ve",
      "red"
    ],
    [
      "n",
      "ed"
    ],
    [
      "ist",
      "er"
    ],
    [
      "f",
      "ace"
    ],
    [
      ".",
      "\u00e2\u0080\u0094"
    ],
    [
      " u",
      "nd"
    ],
    [
      " su",
      "per"
    ],
    [
      " sing",
      "le"
    ],
    [
      " se",
      "am"
    ],
    [
      " sav",
      "age"
    ],
    [
      " s",
      "y"
    ],
    [
      " ro",
      "ck"
    ],
    [
      " me",
      "re"
    ],
    [
      " m",
      "akes"
    ],
    [
      " lo",
      "ve"
    ],
    [
      " gener",
      "al"
    ],
    [
      " for",
      "ward"
    ],
    [
      " every",
      "thing"
    ],
    [
      " de",
      "p"
    ],
    [
      " d",
      "rew"
    ],
    [
      " b",
      "ir"
    ],
    [
      " ",
      "ve"
    ],
    [
      "v",
      "al"
    ],
    [
      "ron",
      "ic"
    ],
    [
      "nd",
      "red"
    ],
    [
      "l",
      "it"
    ],
    [
      "i",
      "i"
    ],
    [
      "g",
      "r"
    ],
    [
      "c",
      "ons"
    ],
    [
      "ay",
      "s"
    ],
    [
      "at",
      "ch"
    ],
    [
      "al",
      "ity"
    ],
    [
      "a",
      "ven"
    ],
    [
      "S",
      "o"
    ],
    [
      " t",
      "en"
    ],
    [
      " sup",
      "per"
    ],
    [
      " m",
      "ur"
    ],
    [
      " li",
      "e"
    ],
    [
      " l",
      "ower"
    ],
    [
      " hus",
      "band"
    ],
    [
      " hu",
      "ndred"
    ],
    [
      " g",
      "entle"
    ],
    [
      " f",
      "at"
    ],
    [
      " doub",
      "t"
    ],
    [
      " b",
      "ows"
    ],
    [
      " a",
      "w"
    ],
    [
      " Pha",
      "eac"
    ],
    [
      " K",
      "ing"
    ],
    [
      "ut",
      "e"
    ],
    [
      "re",
      "g"
    ],
    [
      "ou",
      "red"
    ],
    [
      "om",
      "an"
    ],
    [
      "ine",
      "herd"
    ],
    [
      "il",
      "s"
    ],
    [
      "il",
      "ing"
    ],
    [
      "head",
      "s"
    ],
    [
      "d",
      "own"
    ],
    [
      "ci",
      "ent"
    ],
    [
      "b",
      "our"
    ],
    [
      "as",
      "ed"
    ],
    [
      "al",
      "t"
    ],
    [
      "ag",
      "ain"
    ],
    [
      " t",
      "welve"
    ],
    [
      " sup",
      "pose"
    ],
    [
      " str",
      "uck"
    ],
    [
      " s",
      "ons"
    ],
    [
      " pass",
      "ed"
    ],
    [
      " m",
      "in"
    ],
    [
      " g",
      "ro"
    ],
    [
      " g",
      "reen"
    ],
    [
      " d",
      "iv"
    ],
    [
      " cle",
      "ar"
    ],
    [
      " an",
      "g"
    ],
    [
      "\r\n",
      "    "
    ],
    [
      "ri",
      "st"
    ],
    [
      "i",
      "or"
    ],
    [
      "g",
      "ging"
    ],
    [
      "ct",
      "ed"
    ],
    [
      "c",
      "ast"
    ],
    [
      "A",
      "ye"
    ],
    [
      " tran",
      "s"
    ],
    [
      " swe",
      "et"
    ],
    [
      " st",
      "ern"
    ],
    [
      " st",
      "art"
    ],
    [
      " sa",
      "iled"
    ],
    [
      " rep",
      "lied"
    ],
    [
      " qu",
      "e"
    ],
    [
      " p",
      "ull"
    ],
    [
      " o",
      "ri"
    ],
    [
      " might",
      "y"
    ],
    [
      " d",
      "et"
    ],
    [
      " com",
      "mon"
    ],
    [
      " circ",
      "um"
    ],
    [
      " c",
      "ho"
    ],
    [
      " as",
      "k"
    ],
    [
      " A",
      "n"
    ],
    [
      "po",
      "sed"
    ],
    [
      "p",
      "it"
    ],
    [
      "ou",
      "d"
    ],
    [
      "m",
      "uch"
    ],
    [
      "i",
      "o"
    ],
    [
      "as",
      "hed"
    ],
    [
      " th",
      "ousand"
    ],
    [
      " serv",
      "ants"
    ],
    [
      " lea",
      "ving"
    ],
    [
      " hu",
      "nt"
    ],
    [
      " fr",
      "ont"
    ],
    [
      " f",
      "an"
    ],
    [
      " cra",
      "ft"
    ],
    [
      " ar",
      "ms"
    ],
    [
      " L",
      "a"
    ],
    [
      " H",
      "is"
    ],
    [
      " C",
      "h"
    ],
    [
      "w",
      "ell"
    ],
    [
      "un",
      "ning"
    ],
    [
      "te",
      "go"
    ],
    [
      "ir",
      "m"
    ],
    [
      "i",
      "res"
    ],
    [
      "c",
      "ont"
    ],
    [
      "bo",
      "at"
    ],
    [
      "ash",
      "tego"
    ],
    [
      "an",
      "cing"
    ],
    [
      " th",
      "rew"
    ],
    [
      " so",
      "ft"
    ],
    [
      " sl",
      "ow"
    ],
    [
      " s",
      "il"
    ],
    [
      " god",
      "dess"
    ],
    [
      " e",
      "qu"
    ],
    [
      " d",
      "i"
    ],
    [
      " c",
      "ry"
    ],
    [
      " a",
      "ye"
    ],
    [
      " L",
      "et"
    ],
    [
      "st",
      "ern"
    ],
    [
      "pent",
      "er"
    ],
    [
      "p",
      "es"
    ],
    [
      "ge",
      "st"
    ],
    [
      "ct",
      "ronic"
    ],
    [
      "a",
      "ff"
    ],
    [
      " ye",
      "ar"
    ],
    [
      " tr",
      "uth"
    ],
    [
      " t",
      "em"
    ],
    [
      " su",
      "m"
    ],
    [
      " say",
      "s"
    ],
    [
      " s",
      "orrow"
    ],
    [
      " r",
      "u"
    ],
    [
      " cour",
      "t"
    ],
    [
      " clo",
      "ak"
    ],
    [
      " cal",
      "m"
    ],
    [
      " c",
      "ast"
    ],
    [
      " bro",
      "ad"
    ],
    [
      " b",
      "rave"
    ],
    [
      " D",
      "e"
    ],
    [
      "ver",
      "al"
    ],
    [
      "row",
      "s"
    ],
    [
      "r",
      "ust"
    ],
    [
      "pe",
      "cially"
    ],
    [
      "ot",
      "ion"
    ],
    [
      "mer",
      "ic"
    ],
    [
      "it",
      "er"
    ],
    [
      "b",
      "r"
    ],
    [
      "C",
      "a"
    ],
    [
      " wo",
      "nd"
    ],
    [
      " w",
      "al"
    ],
    [
      " v",
      "iew"
    ],
    [
      " ter",
      "ms"
    ],
    [
      " shi",
      "r"
    ],
    [
      " quest",
      "ion"
    ],
    [
      " ori",
      "gin"
    ],
    [
      " ne",
      "xt"
    ],
    [
      " mid",
      "dle"
    ],
    [
      " man",
      "ner"
    ],
    [
      " m",
      "ortal"
    ],
    [
      " long",
      "er"
    ],
    [
      " l",
      "im"
    ],
    [
      " d",
      "ie"
    ],
    [
      " c",
      "urious"
    ],
    [
      " b",
      "reat"
    ],
    [
      " b",
      "ra"
    ],
    [
      " al",
      "ive"
    ],
    [
      " Eng",
      "lish"
    ],
    [
      " ",
      "ver"
    ],
    [
      "st",
      "r"
    ],
    [
      "ss",
      "ed"
    ],
    [
      "ow",
      "ing"
    ],
    [
      "m",
      "a"
    ],
    [
      "in",
      "ct"
    ],
    [
      "d",
      "es"
    ],
    [
      "c",
      "ould"
    ],
    [
      " writ",
      "er"
    ],
    [
      " turn",
      "ing"
    ],
    [
      " sail",
      "s"
    ],
    [
      " ra",
      "ised"
    ],
    [
      " p",
      "rom"
    ],
    [
      " ne",
      "ither"
    ],
    [
      " n",
      "umber"
    ],
    [
      " n",
      "one"
    ],
    [
      " me",
      "et"
    ],
    [
      " l",
      "ying"
    ],
    [
      " gr",
      "and"
    ],
    [
      " g",
      "lo"
    ],
    [
      " de",
      "st"
    ],
    [
      " d",
      "inner"
    ],
    [
      " ad",
      "d"
    ],
    [
      " a",
      "loft"
    ],
    [
      " T",
      "HE"
    ],
    [
      " P",
      "y"
    ],
    [
      " N",
      "ot"
    ],
    [
      " Ind",
      "ian"
    ],
    [
      " Al",
      "cinous"
    ],
    [
      " A",
      "chaeans"
    ],
    [
      " ",
      "ivory"
    ],
    [
      " ",
      "3"
    ],
    [
      "us",
      "h"
    ],
    [
      "us",
      "ed"
    ],
    [
      "u",
      "ly"
    ],
    [
      "ri",
      "ble"
    ],
    [
      "pe",
      "nd"
    ],
    [
      "p",
      "la"
    ],
    [
      "ore",
      "d"
    ],
    [
      "i",
      "ent"
    ],
    [
      "g",
      "od"
    ],
    [
      "e",
      "ven"
    ],
    [
      "cha",
      "nt"
    ],
    [
      "be",
      "fore"
    ],
    [
      "I",
      "S"
    ],
    [
      " what",
      "ever"
    ],
    [
      " tw",
      "enty"
    ],
    [
      " spe",
      "ar"
    ],
    [
      " ro",
      "pe"
    ],
    [
      " re",
      "c"
    ],
    [
      " pass",
      "age"
    ],
    [
      " out",
      "er"
    ],
    [
      " m",
      "ass"
    ],
    [
      " f",
      "if"
    ],
    [
      " exce",
      "l"
    ],
    [
      " c",
      "ou"
    ],
    [
      " bro",
      "ken"
    ],
    [
      " b",
      "le"
    ],
    [
      " N",
      "ew"
    ],
    [
      " M",
      "enelaus"
    ],
    [
      " ",
      "ut"
    ],
    [
      "ve",
      "st"
    ],
    [
      "ve",
      "l"
    ],
    [
      "us",
      "hed"
    ],
    [
      "th",
      "rough"
    ],
    [
      "ound",
      "ation"
    ],
    [
      "l",
      "ast"
    ],
    [
      "ho",
      "re"
    ],
    [
      "he",
      "l"
    ],
    [
      "er",
      "c"
    ],
    [
      "c",
      "ies"
    ],
    [
      "I",
      "L"
    ],
    [
      "A",
      "hab"
    ],
    [
      " where",
      "on"
    ],
    [
      " w",
      "ish"
    ],
    [
      " tal",
      "k"
    ],
    [
      " sp",
      "ir"
    ],
    [
      " mon",
      "ster"
    ],
    [
      " m",
      "ine"
    ],
    [
      " le",
      "ad"
    ],
    [
      " l",
      "ines"
    ],
    [
      " gl",
      "ad"
    ],
    [
      " exce",
      "pt"
    ],
    [
      " comple",
      "te"
    ],
    [
      " co",
      "ast"
    ],
    [
      " cha",
      "se"
    ],
    [
      " c",
      "h"
    ],
    [
      " be",
      "low"
    ],
    [
      " ad",
      "m"
    ],
    [
      " ab",
      "s"
    ],
    [
      " S",
      "e"
    ],
    [
      "z",
      "z"
    ],
    [
      "u",
      "ous"
    ],
    [
      "t",
      "ime"
    ],
    [
      "st",
      "ant"
    ],
    [
      "se",
      "t"
    ],
    [
      "se",
      "a"
    ],
    [
      "s",
      "m"
    ],
    [
      "ri",
      "c"
    ],
    [
      "r",
      "at"
    ],
    [
      "po",
      "ss"
    ],
    [
      "one",
      "y"
    ],
    [
      "ist",
      "s"
    ],
    [
      "iffe",
      "rent"
    ],
    [
      "ic",
      "es"
    ],
    [
      "i",
      "pe"
    ],
    [
      "i",
      "les"
    ],
    [
      "el",
      "s"
    ],
    [
      "ed",
      "ing"
    ],
    [
      "ean",
      "while"
    ],
    [
      "e",
      "ar"
    ],
    [
      "ark",
      "s"
    ],
    [
      "am",
      "es"
    ],
    [
      "ag",
      "ed"
    ],
    [
      "Y",
      "ou"
    ],
    [
      "Q",
      "u"
    ],
    [
      "N",
      "D"
    ],
    [
      " wat",
      "ch"
    ],
    [
      " sail",
      "ors"
    ],
    [
      " re",
      "t"
    ],
    [
      " part",
      "s"
    ],
    [
      " p",
      "ower"
    ],
    [
      " ob",
      "ject"
    ],
    [
      " mag",
      "n"
    ],
    [
      " g",
      "rie"
    ],
    [
      " fl",
      "u"
    ],
    [
      " f",
      "ro"
    ],
    [
      " e",
      "v"
    ],
    [
      " e",
      "m"
    ],
    [
      " dra",
      "w"
    ],
    [
      " dis",
      "c"
    ],
    [
      " d",
      "ream"
    ],
    [
      " ca",
      "ve"
    ],
    [
      " bl",
      "ue"
    ],
    [
      " be",
      "ar"
    ],
    [
      " S",
      "p"
    ],
    [
      " R",
      "ight"
    ],
    [
      " Phaeac",
      "ians"
    ],
    [
      " N",
      "eptune"
    ],
    [
      " B",
      "y"
    ],
    [
      "to",
      "gether"
    ],
    [
      "t",
      "i"
    ],
    [
      "s",
      "y"
    ],
    [
      "ri",
      "m"
    ],
    [
      "res",
      "h"
    ],
    [
      "ne",
      "y"
    ],
    [
      "n",
      "on"
    ],
    [
      "med",
      "i"
    ],
    [
      "lie",
      "ve"
    ],
    [
      "is",
      "es"
    ],
    [
      "in",
      "ter"
    ],
    [
      "g",
      "n"
    ],
    [
      "f",
      "l"
    ],
    [
      "en",
      "ing"
    ],
    [
      "ect",
      "ed"
    ],
    [
      "com",
      "p"
    ],
    [
      "cla",
      "im"
    ],
    [
      "b",
      "ody"
    ],
    [
      "ast",
      "ed"
    ],
    [
      "_",
      ","
    ],
    [
      "O",
      "h"
    ],
    [
      " under",
      "stand"
    ],
    [
      " th",
      "row"
    ],
    [
      " sk",
      "in"
    ],
    [
      " pur",
      "pose"
    ],
    [
      " present",
      "s"
    ],
    [
      " me",
      "at"
    ],
    [
      " P",
      "er"
    ],
    [
      " I",
      "s"
    ],
    [
      "un",
      "k"
    ],
    [
      "ue",
      "l"
    ],
    [
      "t",
      "r"
    ],
    [
      "st",
      "ill"
    ],
    [
      "s",
      "es"
    ],
    [
      "o",
      "ard"
    ],
    [
      "m",
      "n"
    ],
    [
      "lo",
      "s"
    ],
    [
      "it",
      "ing"
    ],
    [
      "if",
      "ied"
    ],
    [
      "he",
      "red"
    ],
    [
      "g",
      "reat"
    ],
    [
      "er",
      "ning"
    ],
    [
      "e",
      "very"
    ],
    [
      "N",
      "o"
    ],
    [
      "I",
      "I"
    ],
    [
      " v",
      "ar"
    ],
    [
      " sw",
      "ineherd"
    ],
    [
      " ste",
      "ad"
    ],
    [
      " shar",
      "p"
    ],
    [
      " see",
      "ing"
    ],
    [
      " run",
      "ning"
    ],
    [
      " rece",
      "ived"
    ],
    [
      " quar",
      "ter"
    ],
    [
      " pla",
      "ced"
    ],
    [
      " maid",
      "s"
    ],
    [
      " hel",
      "m"
    ],
    [
      " heav",
      "y"
    ],
    [
      " f",
      "all"
    ],
    [
      " e",
      "ff"
    ],
    [
      " chan",
      "ce"
    ],
    [
      " b",
      "urn"
    ],
    [
      " T",
      "ashtego"
    ],
    [
      " A",
      "ll"
    ],
    [
      " ",
      "ide"
    ],
    [
      " ",
      "4"
    ],
    [
      "w",
      "ind"
    ],
    [
      "th",
      "y"
    ],
    [
      "qu",
      "e"
    ],
    [
      "ors",
      "es"
    ],
    [
      "m",
      "at"
    ],
    [
      "less",
      "ly"
    ],
    [
      "ert",
      "es"
    ],
    [
      "air",
      "s"
    ],
    [
      "ain",
      "t"
    ],
    [
      "_",
      ")"
    ],
    [
      "W",
      "ith"
    ],
    [
      "?",
      "\u00e2\u0080\u0099"
    ],
    [
      "..",
      ".."
    ],
    [
      " u",
      "nt"
    ],
    [
      " t",
      "ra"
    ],
    [
      " sk",
      "y"
    ],
    [
      " li",
      "st"
    ],
    [
      " g",
      "re"
    ],
    [
      " fle",
      "w"
    ],
    [
      " fisher",
      "y"
    ],
    [
      " f",
      "ive"
    ],
    [
      " f",
      "illed"
    ],
    [
      " f",
      "ier"
    ],
    [
      " clot",
      "hes"
    ],
    [
      " cle",
      "an"
    ],
    [
      " bo",
      "y"
    ],
    [
      " U",
      "n"
    ],
    [
      " F",
      "oundation"
    ],
    [
      " ",
      "ed"
    ],
    [
      "t",
      "han"
    ],
    [
      "p",
      "id"
    ],
    [
      "ive",
      "ly"
    ],
    [
      "ir",
      "ce"
    ],
    [
      "ever",
      "theless"
    ],
    [
      "ell",
      "ow"
    ],
    [
      "c",
      "ar"
    ],
    [
      "ap",
      "pe"
    ],
    [
      "ag",
      "er"
    ],
    [
      "O",
      "dyssey"
    ],
    [
      "G",
      "reek"
    ],
    [
      "A",
      "t"
    ],
    [
      " w",
      "ake"
    ],
    [
      " te",
      "eth"
    ],
    [
      " t",
      "reat"
    ],
    [
      " sw",
      "ift"
    ],
    [
      " st",
      "ep"
    ],
    [
      " so",
      "le"
    ],
    [
      " shar",
      "ks"
    ],
    [
      " se",
      "veral"
    ],
    [
      " sail",
      "or"
    ],
    [
      " sa",
      "fe"
    ],
    [
      " re",
      "ally"
    ],
    [
      " pur",
      "su"
    ],
    [
      " pro",
      "d"
    ],
    [
      " pr",
      "ot"
    ],
    [
      " m",
      "a"
    ],
    [
      " hard",
      "ly"
    ],
    [
      " ha",
      "ir"
    ],
    [
      " gi",
      "ving"
    ],
    [
      " fe",
      "lt"
    ],
    [
      " do",
      "ing"
    ],
    [
      " de",
      "f"
    ],
    [
      " d",
      "am"
    ],
    [
      " bl",
      "ind"
    ],
    [
      " be",
      "come"
    ],
    [
      "r",
      "ay"
    ],
    [
      "ot",
      "e"
    ],
    [
      "om",
      "s"
    ],
    [
      "o",
      "lo"
    ],
    [
      "ly",
      "p"
    ],
    [
      "cle",
      "a"
    ],
    [
      "ci",
      "al"
    ],
    [
      "chi",
      "ef"
    ],
    [
      "b",
      "ack"
    ],
    [
      " w",
      "icked"
    ],
    [
      " t",
      "all"
    ],
    [
      " stre",
      "ngth"
    ],
    [
      " s",
      "ad"
    ],
    [
      " pla",
      "ces"
    ],
    [
      " m",
      "ut"
    ],
    [
      " li",
      "ves"
    ],
    [
      " hum",
      "an"
    ],
    [
      " h",
      "ung"
    ],
    [
      " fam",
      "ous"
    ],
    [
      " esca",
      "pe"
    ],
    [
      " es",
      "pecially"
    ],
    [
      " dark",
      "ness"
    ],
    [
      " co",
      "nd"
    ],
    [
      " co",
      "ff"
    ],
    [
      " car",
      "ry"
    ],
    [
      " Ant",
      "inous"
    ],
    [
      " ",
      "5"
    ],
    [
      "\u00ce",
      "\u00bf"
    ],
    [
      "y",
      "ed"
    ],
    [
      "w",
      "ater"
    ],
    [
      "u",
      "ed"
    ],
    [
      "to",
      "p"
    ],
    [
      "te",
      "nd"
    ],
    [
      "sh",
      "ould"
    ],
    [
      "s",
      "w"
    ],
    [
      "r",
      "s"
    ],
    [
      "p",
      "ri"
    ],
    [
      "o",
      "b"
    ],
    [
      "iv",
      "id"
    ],
    [
      "if",
      "ul"
    ],
    [
      "g",
      "l"
    ],
    [
      "f",
      "ast"
    ],
    [
      "e",
      "ad"
    ],
    [
      "are",
      "nt"
    ],
    [
      "ak",
      "ed"
    ],
    [
      "L",
      "E"
    ],
    [
      "B",
      "OOK"
    ],
    [
      " t",
      "rave"
    ],
    [
      " slow",
      "ly"
    ],
    [
      " sil",
      "ver"
    ],
    [
      " serv",
      "ant"
    ],
    [
      " ro",
      "se"
    ],
    [
      " ro",
      "lled"
    ],
    [
      " p",
      "ast"
    ],
    [
      " off",
      "ic"
    ],
    [
      " nat",
      "ural"
    ],
    [
      " mar",
      "in"
    ],
    [
      " le",
      "e"
    ],
    [
      " le",
      "arn"
    ],
    [
      " hu",
      "ge"
    ],
    [
      " hor",
      "iz"
    ],
    [
      " hi",
      "ther"
    ],
    [
      " harpoone",
      "ers"
    ],
    [
      " g",
      "ue"
    ],
    [
      " follow",
      "ed"
    ],
    [
      " e",
      "ight"
    ],
    [
      " d",
      "art"
    ],
    [
      " creat",
      "ure"
    ],
    [
      " ans",
      "wer"
    ],
    [
      " a",
      "round"
    ],
    [
      " A",
      "meric"
    ],
    [
      " ",
      "x"
    ],
    [
      "th",
      "s"
    ],
    [
      "t",
      "ell"
    ],
    [
      "so",
      "l"
    ],
    [
      "ran",
      "ger"
    ],
    [
      "on",
      "ed"
    ],
    [
      "g",
      "ers"
    ],
    [
      "ed",
      "s"
    ],
    [
      "de",
      "ck"
    ],
    [
      "cast",
      "le"
    ],
    [
      " whale",
      "man"
    ],
    [
      " up",
      "per"
    ],
    [
      " sudden",
      "ly"
    ],
    [
      " sh",
      "out"
    ],
    [
      " sa",
      "cri"
    ],
    [
      " rem",
      "em"
    ],
    [
      " qu",
      "iet"
    ],
    [
      " pe",
      "ace"
    ],
    [
      " p",
      "al"
    ],
    [
      " ob",
      "ser"
    ],
    [
      " m",
      "ild"
    ],
    [
      " heart",
      "s"
    ],
    [
      " h",
      "un"
    ],
    [
      " fo",
      "ol"
    ],
    [
      " f",
      "re"
    ],
    [
      " f",
      "et"
    ],
    [
      " excel",
      "lent"
    ],
    [
      " e",
      "st"
    ],
    [
      " de",
      "c"
    ],
    [
      " c",
      "row"
    ],
    [
      " b",
      "orn"
    ],
    [
      " b",
      "od"
    ],
    [
      " Y",
      "et"
    ],
    [
      " Py",
      "los"
    ],
    [
      " 1",
      "8"
    ],
    [
      "\r\n    ",
      "   "
    ],
    [
      "u",
      "ct"
    ],
    [
      "te",
      "el"
    ],
    [
      "sp",
      "it"
    ],
    [
      "se",
      "mb"
    ],
    [
      "ri",
      "f"
    ],
    [
      "r",
      "or"
    ],
    [
      "ord",
      "ing"
    ],
    [
      "m",
      "ay"
    ],
    [
      "ll",
      "o"
    ],
    [
      "kn",
      "own"
    ],
    [
      "for",
      "m"
    ],
    [
      "d",
      "ra"
    ],
    [
      "clud",
      "ed"
    ],
    [
      "as",
      "ion"
    ],
    [
      "am",
      "ent"
    ],
    [
      "The",
      "y"
    ],
    [
      "E",
      "N"
    ],
    [
      " v",
      "ain"
    ],
    [
      " tou",
      "ching"
    ],
    [
      " thir",
      "d"
    ],
    [
      " st",
      "o"
    ],
    [
      " sacri",
      "f"
    ],
    [
      " s",
      "ke"
    ],
    [
      " reg",
      "ard"
    ],
    [
      " p",
      "ig"
    ],
    [
      " never",
      "theless"
    ],
    [
      " m",
      "il"
    ],
    [
      " l",
      "ance"
    ],
    [
      " ha",
      "ng"
    ],
    [
      " h",
      "orses"
    ],
    [
      " gold",
      "en"
    ],
    [
      " f",
      "resh"
    ],
    [
      " dist",
      "ance"
    ],
    [
      " co",
      "ld"
    ],
    [
      " b",
      "row"
    ],
    [
      " b",
      "less"
    ],
    [
      " ag",
      "re"
    ],
    [
      " L",
      "ord"
    ],
    [
      "y",
      "ond"
    ],
    [
      "ud",
      "es"
    ],
    [
      "ub",
      "ber"
    ],
    [
      "thou",
      "ght"
    ],
    [
      "teel",
      "k"
    ],
    [
      "teelk",
      "ilt"
    ],
    [
      "st",
      "ri"
    ],
    [
      "sha",
      "ll"
    ],
    [
      "s",
      "omet"
    ],
    [
      "p",
      "ic"
    ],
    [
      "n",
      "at"
    ],
    [
      "m",
      "ust"
    ],
    [
      "li",
      "ve"
    ],
    [
      "in",
      "ary"
    ],
    [
      "har",
      "po"
    ],
    [
      "g",
      "am"
    ],
    [
      "est",
      "or"
    ],
    [
      "er",
      "y"
    ],
    [
      "ect",
      "ion"
    ],
    [
      "d",
      "on"
    ],
    [
      "b",
      "u"
    ],
    [
      "ar",
      "r"
    ],
    [
      "ac",
      "le"
    ],
    [
      "a",
      "pp"
    ],
    [
      "W",
      "hale"
    ],
    [
      " un",
      "less"
    ],
    [
      " think",
      "ing"
    ],
    [
      " t",
      "or"
    ],
    [
      " sl",
      "ight"
    ],
    [
      " shir",
      "t"
    ],
    [
      " ro",
      "cks"
    ],
    [
      " plain",
      "ly"
    ],
    [
      " pl",
      "ay"
    ],
    [
      " p",
      "ub"
    ],
    [
      " off",
      "er"
    ],
    [
      " n",
      "igh"
    ],
    [
      " m",
      "od"
    ],
    [
      " l",
      "ord"
    ],
    [
      " imm",
      "ortal"
    ],
    [
      " hor",
      "se"
    ],
    [
      " hi",
      "de"
    ],
    [
      " f",
      "irm"
    ],
    [
      " f",
      "ig"
    ],
    [
      " ex",
      "act"
    ],
    [
      " ele",
      "ctronic"
    ],
    [
      " eas",
      "y"
    ],
    [
      " e",
      "ating"
    ],
    [
      " dist",
      "ribut"
    ],
    [
      " app",
      "ro"
    ],
    [
      " ag",
      "o"
    ],
    [
      " acc",
      "om"
    ],
    [
      " a",
      "ge"
    ],
    [
      " a",
      "ble"
    ],
    [
      " W",
      "ith"
    ],
    [
      " La",
      "ertes"
    ],
    [
      "the",
      "se"
    ],
    [
      "ren",
      "ch"
    ],
    [
      "li",
      "ad"
    ],
    [
      "iz",
      "e"
    ],
    [
      "i",
      "ving"
    ],
    [
      "he",
      "ther"
    ],
    [
      "ha",
      "l"
    ],
    [
      "em",
      "pt"
    ],
    [
      "em",
      "non"
    ],
    [
      "ct",
      "ions"
    ],
    [
      "c",
      "her"
    ],
    [
      "be",
      "en"
    ],
    [
      "W",
      "e"
    ],
    [
      "Ca",
      "ptain"
    ],
    [
      " war",
      "m"
    ],
    [
      " turn",
      "s"
    ],
    [
      " th",
      "under"
    ],
    [
      " re",
      "qu"
    ],
    [
      " pro",
      "b"
    ],
    [
      " p",
      "ul"
    ],
    [
      " near",
      "ly"
    ],
    [
      " m",
      "us"
    ],
    [
      " li",
      "es"
    ],
    [
      " le",
      "viathan"
    ],
    [
      " le",
      "d"
    ],
    [
      " know",
      "s"
    ],
    [
      " her",
      "self"
    ],
    [
      " h",
      "ours"
    ],
    [
      " h",
      "our"
    ],
    [
      " f",
      "urn"
    ],
    [
      " f",
      "ixed"
    ],
    [
      " f",
      "it"
    ],
    [
      " d",
      "uring"
    ],
    [
      " com",
      "r"
    ],
    [
      " child",
      "ren"
    ],
    [
      " cha",
      "p"
    ],
    [
      " be",
      "long"
    ],
    [
      " be",
      "lieve"
    ],
    [
      " b",
      "one"
    ],
    [
      " as",
      "hore"
    ],
    [
      " M",
      "y"
    ],
    [
      " C",
      "irce"
    ],
    [
      " ",
      "id"
    ],
    [
      "w",
      "arks"
    ],
    [
      "ular",
      "ly"
    ],
    [
      "s",
      "uch"
    ],
    [
      "reen",
      "land"
    ],
    [
      "p",
      "ort"
    ],
    [
      "ok",
      "ed"
    ],
    [
      "le",
      "y"
    ],
    [
      "itt",
      "en"
    ],
    [
      "il",
      "ity"
    ],
    [
      "gam",
      "emnon"
    ],
    [
      "f",
      "o"
    ],
    [
      "f",
      "ish"
    ],
    [
      "e",
      "nd"
    ],
    [
      "e",
      "es"
    ],
    [
      "d",
      "id"
    ],
    [
      "ck",
      "ing"
    ],
    [
      "b",
      "re"
    ],
    [
      "b",
      "ow"
    ],
    [
      "b",
      "et"
    ],
    [
      "as",
      "hing"
    ],
    [
      "ar",
      "ily"
    ],
    [
      "F",
      "or"
    ],
    [
      "A",
      "l"
    ],
    [
      " was",
      "h"
    ],
    [
      " st",
      "ate"
    ],
    [
      " sp",
      "ite"
    ],
    [
      " sm",
      "oke"
    ],
    [
      " si",
      "lent"
    ],
    [
      " sha",
      "d"
    ],
    [
      " se",
      "par"
    ],
    [
      " s",
      "now"
    ],
    [
      " s",
      "itting"
    ],
    [
      " re",
      "ve"
    ],
    [
      " present",
      "ly"
    ],
    [
      " p",
      "ay"
    ],
    [
      " o",
      "x"
    ],
    [
      " mat",
      "es"
    ],
    [
      " le",
      "ap"
    ],
    [
      " l",
      "if"
    ],
    [
      " l",
      "at"
    ],
    [
      " ide",
      "a"
    ],
    [
      " he",
      "n"
    ],
    [
      " he",
      "ed"
    ],
    [
      " gho",
      "st"
    ],
    [
      " fe",
      "ast"
    ],
    [
      " en",
      "c"
    ],
    [
      " d",
      "r"
    ],
    [
      " con",
      "ce"
    ],
    [
      " co",
      "vered"
    ],
    [
      " car",
      "penter"
    ],
    [
      " ca",
      "pt"
    ],
    [
      " be",
      "aring"
    ],
    [
      " W",
      "here"
    ],
    [
      " D",
      "on"
    ],
    [
      "ven",
      "ge"
    ],
    [
      "um",
      "ed"
    ],
    [
      "ul",
      "ous"
    ],
    [
      "t",
      "wo"
    ],
    [
      "se",
      "qu"
    ],
    [
      "s",
      "ur"
    ],
    [
      "p",
      "ass"
    ],
    [
      "ound",
      "ed"
    ],
    [
      "m",
      "od"
    ],
    [
      "m",
      "o"
    ],
    [
      "k",
      "ind"
    ],
    [
      "is",
      "on"
    ],
    [
      "i",
      "ence"
    ],
    [
      "ho",
      "ress"
    ],
    [
      "ha",
      "s"
    ],
    [
      "es",
      "ides"
    ],
    [
      "er",
      "able"
    ],
    [
      "at",
      "hered"
    ],
    [
      "ad",
      "ed"
    ],
    [
      "U",
      "S"
    ],
    [
      "B",
      "ook"
    ],
    [
      " we",
      "ather"
    ],
    [
      " var",
      "ious"
    ],
    [
      " t",
      "rying"
    ],
    [
      " st",
      "ro"
    ],
    [
      " seam",
      "en"
    ],
    [
      " sail",
      "ing"
    ],
    [
      " s",
      "la"
    ],
    [
      " que",
      "er"
    ],
    [
      " poss",
      "ible"
    ],
    [
      " p",
      "ain"
    ],
    [
      " mount",
      "ain"
    ],
    [
      " le",
      "gs"
    ],
    [
      " l",
      "ate"
    ],
    [
      " hi",
      "t"
    ],
    [
      " g",
      "un"
    ],
    [
      " en",
      "g"
    ],
    [
      " e",
      "vil"
    ],
    [
      " e",
      "ars"
    ],
    [
      " d",
      "read"
    ],
    [
      " d",
      "im"
    ],
    [
      " d",
      "arted"
    ],
    [
      " d",
      "an"
    ],
    [
      " cut",
      "ting"
    ],
    [
      " conc",
      "erning"
    ],
    [
      " c",
      "up"
    ],
    [
      " c",
      "ru"
    ],
    [
      " c",
      "e"
    ],
    [
      " bur",
      "st"
    ],
    [
      " begin",
      "ning"
    ],
    [
      " b",
      "attle"
    ],
    [
      " ang",
      "ry"
    ],
    [
      " O",
      "F"
    ],
    [
      "y",
      "clo"
    ],
    [
      "um",
      "e"
    ],
    [
      "u",
      "gh"
    ],
    [
      "u",
      "es"
    ],
    [
      "ru",
      "pt"
    ],
    [
      "m",
      "is"
    ],
    [
      "k",
      "y"
    ],
    [
      "iz",
      "ing"
    ],
    [
      "it",
      "udes"
    ],
    [
      "it",
      "ions"
    ],
    [
      "ir",
      "t"
    ],
    [
      "i",
      "od"
    ],
    [
      "h",
      "s"
    ],
    [
      "g",
      "ood"
    ],
    [
      "e",
      "ch"
    ],
    [
      "clud",
      "ing"
    ],
    [
      "c",
      "ious"
    ],
    [
      "c",
      "ertain"
    ],
    [
      "at",
      "or"
    ],
    [
      "ac",
      "ific"
    ],
    [
      "ac",
      "ed"
    ],
    [
      "S",
      "ir"
    ],
    [
      "I",
      "T"
    ],
    [
      "A",
      "C"
    ],
    [
      " wond",
      "rous"
    ],
    [
      " tr",
      "uly"
    ],
    [
      " some",
      "how"
    ],
    [
      " sc",
      "ar"
    ],
    [
      " rem",
      "ained"
    ],
    [
      " rem",
      "ain"
    ],
    [
      " new",
      "s"
    ],
    [
      " j",
      "oy"
    ],
    [
      " ham",
      "m"
    ],
    [
      " f",
      "ill"
    ],
    [
      " d",
      "en"
    ],
    [
      " comp",
      "any"
    ],
    [
      " che",
      "st"
    ],
    [
      " ca",
      "p"
    ],
    [
      " c",
      "attle"
    ],
    [
      " bo",
      "ld"
    ],
    [
      " b",
      "ore"
    ],
    [
      " b",
      "arb"
    ],
    [
      " as",
      "ked"
    ],
    [
      " W",
      "ho"
    ],
    [
      " S",
      "ome"
    ],
    [
      "ut",
      "horess"
    ],
    [
      "t",
      "ake"
    ],
    [
      "st",
      "one"
    ],
    [
      "ro",
      "om"
    ],
    [
      "pl",
      "ain"
    ],
    [
      "p",
      "resent"
    ],
    [
      "p",
      "hant"
    ],
    [
      "p",
      "art"
    ],
    [
      "m",
      "ates"
    ],
    [
      "lyp",
      "so"
    ],
    [
      "let",
      "on"
    ],
    [
      "l",
      "ord"
    ],
    [
      "l",
      "in"
    ],
    [
      "im",
      "ent"
    ],
    [
      "g",
      "round"
    ],
    [
      "e",
      "per"
    ],
    [
      "ant",
      "ed"
    ],
    [
      "ac",
      "ious"
    ],
    [
      "W",
      "hi"
    ],
    [
      "L",
      "ook"
    ],
    [
      "H",
      "ow"
    ],
    [
      " wind",
      "s"
    ],
    [
      " w",
      "re"
    ],
    [
      " w",
      "on"
    ],
    [
      " v",
      "io"
    ],
    [
      " tr",
      "ad"
    ],
    [
      " t",
      "akes"
    ],
    [
      " sub",
      "stance"
    ],
    [
      " ro",
      "y"
    ],
    [
      " ri",
      "ch"
    ],
    [
      " proper",
      "ty"
    ],
    [
      " prec",
      "ise"
    ],
    [
      " pie",
      "ce"
    ],
    [
      " p",
      "at"
    ],
    [
      " land",
      "s"
    ],
    [
      " ho",
      "spit"
    ],
    [
      " hi",
      "g"
    ],
    [
      " h",
      "ull"
    ],
    [
      " follow",
      "ing"
    ],
    [
      " fif",
      "ty"
    ],
    [
      " f",
      "al"
    ],
    [
      " dra",
      "wing"
    ],
    [
      " clo",
      "ister"
    ],
    [
      " br",
      "ain"
    ],
    [
      " bl",
      "ow"
    ],
    [
      " bit",
      "ter"
    ],
    [
      " be",
      "yond"
    ],
    [
      " be",
      "at"
    ],
    [
      " b",
      "id"
    ],
    [
      " as",
      "pect"
    ],
    [
      " W",
      "hy"
    ],
    [
      " T",
      "ell"
    ],
    [
      " Eury",
      "clea"
    ],
    [
      " C",
      "an"
    ],
    [
      " A",
      "eg"
    ],
    [
      " ",
      "X"
    ],
    [
      "\r\n\r\n",
      "\r\n\r\n\r"
    ],
    [
      "\u00e2",
      "\u0084"
    ],
    [
      "\u00e2\u0084",
      "\u00a2"
    ],
    [
      "\u00ce",
      "\u00bd"
    ],
    [
      "wo",
      "od"
    ],
    [
      "ver",
      "ing"
    ],
    [
      "v",
      "als"
    ],
    [
      "ut",
      "tle"
    ],
    [
      "ut",
      "ch"
    ],
    [
      "ure",
      "ly"
    ],
    [
      "t",
      "hi"
    ],
    [
      "st",
      "ances"
    ],
    [
      "ret",
      "ched"
    ],
    [
      "ra",
      "id"
    ],
    [
      "ra",
      "ge"
    ],
    [
      "p",
      "or"
    ],
    [
      "ow",
      "ards"
    ],
    [
      "o",
      "g"
    ],
    [
      "n",
      "y"
    ],
    [
      "n",
      "ib"
    ],
    [
      "le",
      "st"
    ],
    [
      "le",
      "ep"
    ],
    [
      "l",
      "ation"
    ],
    [
      "i",
      "en"
    ],
    [
      "him",
      "self"
    ],
    [
      "ha",
      "pp"
    ],
    [
      "gy",
      "pt"
    ],
    [
      "go",
      "o"
    ],
    [
      "et",
      "y"
    ],
    [
      "ess",
      "ion"
    ],
    [
      "er",
      "m"
    ],
    [
      "claim",
      "ed"
    ],
    [
      "c",
      "ried"
    ],
    [
      "ble",
      "d"
    ],
    [
      "be",
      "ing"
    ],
    [
      "b",
      "us"
    ],
    [
      "ar",
      "row"
    ],
    [
      "ag",
      "goo"
    ],
    [
      "A",
      "N"
    ],
    [
      ":",
      "\u00e2\u0080\u0094"
    ],
    [
      " v",
      "ol"
    ],
    [
      " sur",
      "face"
    ],
    [
      " str",
      "ing"
    ],
    [
      " st",
      "ream"
    ],
    [
      " spe",
      "aking"
    ],
    [
      " should",
      "ers"
    ],
    [
      " sa",
      "ve"
    ],
    [
      " pro",
      "ceed"
    ],
    [
      " no",
      "se"
    ],
    [
      " nat",
      "ure"
    ]
  ]
}